#include "magic_wand_model_data.h"

// We need to keep the data array aligned on some architectures.

#ifdef __has_attribute

#define HAVE_ATTRIBUTE(x) __has_attribute(x)

#else

#define HAVE_ATTRIBUTE(x) 0

#endif

#if HAVE_ATTRIBUTE(aligned) || (defined(__GNUC__) && !defined(__clang__))

#define DATA_ALIGN_ATTRIBUTE __attribute__((aligned(4)))

#else

#define DATA_ALIGN_ATTRIBUTE

#endif

const unsigned char g_magic_wand_model_data[] DATA_ALIGN_ATTRIBUTE = {
    0x1c, 0x00, 0x00, 0x00, 0x54, 0x46, 0x4c, 0x33, 0x14, 0x00, 0x20, 0x00,
    0x04, 0x00, 0x08, 0x00, 0x0c, 0x00, 0x10, 0x00, 0x14, 0x00, 0x00, 0x00,
    0x18, 0x00, 0x1c, 0x00, 0x14, 0x00, 0x00, 0x00, 0x03, 0x00, 0x00, 0x00,
    0x18, 0x00, 0x00, 0x00, 0x2c, 0x00, 0x00, 0x00, 0xd8, 0x00, 0x00, 0x00,
    0x2c, 0x00, 0x00, 0x00, 0x80, 0x00, 0x00, 0x00, 0x78, 0x00, 0x00, 0x00,
    0x05, 0x00, 0x00, 0x00, 0x28, 0x07, 0x00, 0x00, 0x44, 0x06, 0x00, 0x00,
    0xbc, 0x03, 0x00, 0x00, 0xf8, 0x02, 0x00, 0x00, 0xac, 0x01, 0x00, 0x00,
    0x01, 0x00, 0x00, 0x00, 0xd0, 0x00, 0x00, 0x00, 0x14, 0x00, 0x00, 0x00,
    0xdc, 0x32, 0x00, 0x00, 0xd8, 0x32, 0x00, 0x00, 0xd0, 0x31, 0x00, 0x00,
    0x1c, 0x31, 0x00, 0x00, 0x74, 0x30, 0x00, 0x00, 0xfc, 0x2f, 0x00, 0x00,
    0x90, 0x2f, 0x00, 0x00, 0x40, 0x13, 0x00, 0x00, 0xec, 0x11, 0x00, 0x00,
    0x10, 0x10, 0x00, 0x00, 0xb4, 0x07, 0x00, 0x00, 0xb0, 0x32, 0x00, 0x00,
    0xac, 0x32, 0x00, 0x00, 0xa8, 0x32, 0x00, 0x00, 0xa4, 0x32, 0x00, 0x00,
    0xa0, 0x32, 0x00, 0x00, 0x9c, 0x32, 0x00, 0x00, 0x98, 0x32, 0x00, 0x00,
    0x94, 0x32, 0x00, 0x00, 0x3c, 0x00, 0x00, 0x00, 0x00, 0x00, 0x00, 0x00,
    0x01, 0x00, 0x00, 0x00, 0x0c, 0x00, 0x00, 0x00, 0x08, 0x00, 0x0c, 0x00,
    0x04, 0x00, 0x08, 0x00, 0x08, 0x00, 0x00, 0x00, 0x08, 0x00, 0x00, 0x00,
    0x13, 0x00, 0x00, 0x00, 0x13, 0x00, 0x00, 0x00, 0x6d, 0x69, 0x6e, 0x5f,
    0x72, 0x75, 0x6e, 0x74, 0x69, 0x6d, 0x65, 0x5f, 0x76, 0x65, 0x72, 0x73,
    0x69, 0x6f, 0x6e, 0x00, 0xb6, 0xce, 0xff, 0xff, 0x04, 0x00, 0x00, 0x00,
    0x10, 0x00, 0x00, 0x00, 0x31, 0x2e, 0x35, 0x2e, 0x30, 0x00, 0x00, 0x00,
    0x00, 0x00, 0x00, 0x00, 0x00, 0x00, 0x00, 0x00, 0x0f, 0x00, 0x00, 0x00,
    0x4d, 0x4c, 0x49, 0x52, 0x20, 0x43, 0x6f, 0x6e, 0x76, 0x65, 0x72, 0x74,
    0x65, 0x64, 0x2e, 0x00, 0x00, 0x00, 0x0e, 0x00, 0x18, 0x00, 0x04, 0x00,
    0x08, 0x00, 0x0c, 0x00, 0x10, 0x00, 0x14, 0x00, 0x0e, 0x00, 0x00, 0x00,
    0x14, 0x00, 0x00, 0x00, 0x5c, 0x00, 0x00, 0x00, 0x60, 0x00, 0x00, 0x00,
    0x64, 0x00, 0x00, 0x00, 0x84, 0x00, 0x00, 0x00, 0x12, 0x00, 0x00, 0x00,
    0x9c, 0x31, 0x00, 0x00, 0x2c, 0x31, 0x00, 0x00, 0x88, 0x30, 0x00, 0x00,
    0xe0, 0x2f, 0x00, 0x00, 0x38, 0x2f, 0x00, 0x00, 0xd4, 0x2e, 0x00, 0x00,
    0x6c, 0x2e, 0x00, 0x00, 0x18, 0x12, 0x00, 0x00, 0xbc, 0x10, 0x00, 0x00,
    0xe0, 0x0e, 0x00, 0x00, 0x0c, 0x06, 0x00, 0x00, 0x28, 0x05, 0x00, 0x00,
    0xe8, 0x03, 0x00, 0x00, 0x3c, 0x03, 0x00, 0x00, 0x98, 0x02, 0x00, 0x00,
    0xd4, 0x01, 0x00, 0x00, 0x10, 0x01, 0x00, 0x00, 0x84, 0x00, 0x00, 0x00,
    0x01, 0x00, 0x00, 0x00, 0x00, 0x00, 0x00, 0x00, 0x01, 0x00, 0x00, 0x00,
    0x11, 0x00, 0x00, 0x00, 0x08, 0x00, 0x00, 0x00, 0x74, 0x05, 0x00, 0x00,
    0x94, 0x04, 0x00, 0x00, 0x78, 0x03, 0x00, 0x00, 0xbc, 0x02, 0x00, 0x00,
    0x30, 0x02, 0x00, 0x00, 0x50, 0x01, 0x00, 0x00, 0xa8, 0x00, 0x00, 0x00,
    0x10, 0x00, 0x00, 0x00, 0x04, 0x00, 0x00, 0x00, 0x6d, 0x61, 0x69, 0x6e,
    0x00, 0x00, 0x00, 0x00, 0x7a, 0xff, 0xff, 0xff, 0x00, 0x00, 0x00, 0x09,
    0x04, 0x00, 0x00, 0x00, 0x1c, 0x00, 0x00, 0x00, 0x10, 0x00, 0x00, 0x00,
    0x04, 0x00, 0x00, 0x00, 0xb2, 0xcf, 0xff, 0xff, 0x00, 0x00, 0x80, 0x3f,
    0x01, 0x00, 0x00, 0x00, 0x11, 0x00, 0x00, 0x00, 0x01, 0x00, 0x00, 0x00,
    0x10, 0x00, 0x00, 0x00, 0xa0, 0xfa, 0xff, 0xff, 0x19, 0x00, 0x00, 0x00,
    0x00, 0x00, 0x00, 0x19, 0x01, 0x00, 0x00, 0x00, 0x40, 0xcf, 0xff, 0xff,
    0x14, 0x00, 0x00, 0x00, 0x12, 0x00, 0x00, 0x00, 0x18, 0x00, 0x00, 0x00,
    0x30, 0x00, 0x00, 0x00, 0x20, 0x00, 0x00, 0x00, 0x02, 0x00, 0x00, 0x00,
    0x01, 0x00, 0x00, 0x00, 0x04, 0x00, 0x00, 0x00, 0x08, 0x00, 0x00, 0x00,
    0x49, 0x64, 0x65, 0x6e, 0x74, 0x69, 0x74, 0x79, 0x00, 0x00, 0x00, 0x00,
    0x02, 0x00, 0x00, 0x00, 0xff, 0xff, 0xff, 0xff, 0x04, 0x00, 0x00, 0x00,
    0x24, 0xd0, 0xff, 0xff, 0x00, 0x00, 0x0e, 0x00, 0x18, 0x00, 0x08, 0x00,
    0x0c, 0x00, 0x10, 0x00, 0x07, 0x00, 0x14, 0x00, 0x0e, 0x00, 0x00, 0x00,
    0x00, 0x00, 0x00, 0x08, 0x03, 0x00, 0x00, 0x00, 0x18, 0x00, 0x00, 0x00,
    0x0c, 0x00, 0x00, 0x00, 0x04, 0x00, 0x00, 0x00, 0x40, 0xcf, 0xff, 0xff,
    0x01, 0x00, 0x00, 0x00, 0x10, 0x00, 0x00, 0x00, 0x03, 0x00, 0x00, 0x00,
    0x0f, 0x00, 0x00, 0x00, 0x07, 0x00, 0x00, 0x00, 0x04, 0x00, 0x00, 0x00,
    0xc8, 0xcf, 0xff, 0xff, 0x14, 0x00, 0x00, 0x00, 0x11, 0x00, 0x00, 0x00,
    0x18, 0x00, 0x00, 0x00, 0x5c, 0x00, 0x00, 0x00, 0x4c, 0x00, 0x00, 0x00,
    0x02, 0x00, 0x00, 0x00, 0x01, 0x00, 0x00, 0x00, 0x04, 0x00, 0x00, 0x00,
    0x34, 0x00, 0x00, 0x00, 0x73, 0x65, 0x71, 0x75, 0x65, 0x6e, 0x74, 0x69,
    0x61, 0x6c, 0x2f, 0x64, 0x65, 0x6e, 0x73, 0x65, 0x5f, 0x31, 0x2f, 0x4d,
    0x61, 0x74, 0x4d, 0x75, 0x6c, 0x3b, 0x73, 0x65, 0x71, 0x75, 0x65, 0x6e,
    0x74, 0x69, 0x61, 0x6c, 0x2f, 0x64, 0x65, 0x6e, 0x73, 0x65, 0x5f, 0x31,
    0x2f, 0x42, 0x69, 0x61, 0x73, 0x41, 0x64, 0x64, 0x00, 0x00, 0x00, 0x00,
    0x02, 0x00, 0x00, 0x00, 0xff, 0xff, 0xff, 0xff, 0x04, 0x00, 0x00, 0x00,
    0xc8, 0xcf, 0xff, 0xff, 0xda, 0xfc, 0xff, 0xff, 0x00, 0x00, 0x00, 0x08,
    0x03, 0x00, 0x00, 0x00, 0x24, 0x00, 0x00, 0x00, 0x18, 0x00, 0x00, 0x00,
    0x0c, 0x00, 0x00, 0x00, 0x00, 0x00, 0x06, 0x00, 0x08, 0x00, 0x07, 0x00,
    0x06, 0x00, 0x00, 0x00, 0x00, 0x00, 0x00, 0x01, 0x01, 0x00, 0x00, 0x00,
    0x0f, 0x00, 0x00, 0x00, 0x03, 0x00, 0x00, 0x00, 0x0e, 0x00, 0x00, 0x00,
    0x06, 0x00, 0x00, 0x00, 0x03, 0x00, 0x00, 0x00, 0xe8, 0xfb, 0xff, 0xff,
    0x09, 0x00, 0x00, 0x00, 0x00, 0x00, 0x00, 0x09, 0x01, 0x00, 0x00, 0x00,
    0x88, 0xd0, 0xff, 0xff, 0x14, 0x00, 0x00, 0x00, 0x10, 0x00, 0x00, 0x00,
    0x18, 0x00, 0x00, 0x00, 0x6c, 0x00, 0x00, 0x00, 0x5c, 0x00, 0x00, 0x00,
    0x02, 0x00, 0x00, 0x00, 0x01, 0x00, 0x00, 0x00, 0x10, 0x00, 0x00, 0x00,
    0x46, 0x00, 0x00, 0x00, 0x73, 0x65, 0x71, 0x75, 0x65, 0x6e, 0x74, 0x69,
    0x61, 0x6c, 0x2f, 0x64, 0x65, 0x6e, 0x73, 0x65, 0x2f, 0x4d, 0x61, 0x74,
    0x4d, 0x75, 0x6c, 0x3b, 0x73, 0x65, 0x71, 0x75, 0x65, 0x6e, 0x74, 0x69,
    0x61, 0x6c, 0x2f, 0x64, 0x65, 0x6e, 0x73, 0x65, 0x2f, 0x52, 0x65, 0x6c,
    0x75, 0x3b, 0x73, 0x65, 0x71, 0x75, 0x65, 0x6e, 0x74, 0x69, 0x61, 0x6c,
    0x2f, 0x64, 0x65, 0x6e, 0x73, 0x65, 0x2f, 0x42, 0x69, 0x61, 0x73, 0x41,
    0x64, 0x64, 0x00, 0x00, 0x02, 0x00, 0x00, 0x00, 0xff, 0xff, 0xff, 0xff,
    0x10, 0x00, 0x00, 0x00, 0xa8, 0xd1, 0xff, 0xff, 0x00, 0x00, 0x0a, 0x00,
    0x10, 0x00, 0x04, 0x00, 0x08, 0x00, 0x0c, 0x00, 0x0a, 0x00, 0x00, 0x00,
    0x02, 0x00, 0x00, 0x00, 0x10, 0x00, 0x00, 0x00, 0x04, 0x00, 0x00, 0x00,
    0x01, 0x00, 0x00, 0x00, 0x0e, 0x00, 0x00, 0x00, 0x02, 0x00, 0x00, 0x00,
    0x0d, 0x00, 0x00, 0x00, 0x05, 0x00, 0x00, 0x00, 0xa8, 0xfc, 0xff, 0xff,
    0x16, 0x00, 0x00, 0x00, 0x00, 0x00, 0x00, 0x16, 0x01, 0x00, 0x00, 0x00,
    0x48, 0xd1, 0xff, 0xff, 0x14, 0x00, 0x00, 0x00, 0x0f, 0x00, 0x00, 0x00,
    0x18, 0x00, 0x00, 0x00, 0x40, 0x00, 0x00, 0x00, 0x30, 0x00, 0x00, 0x00,
    0x02, 0x00, 0x00, 0x00, 0x01, 0x00, 0x00, 0x00, 0x70, 0x00, 0x00, 0x00,
    0x1a, 0x00, 0x00, 0x00, 0x73, 0x65, 0x71, 0x75, 0x65, 0x6e, 0x74, 0x69,
    0x61, 0x6c, 0x2f, 0x66, 0x6c, 0x61, 0x74, 0x74, 0x65, 0x6e, 0x2f, 0x52,
    0x65, 0x73, 0x68, 0x61, 0x70, 0x65, 0x00, 0x00, 0x02, 0x00, 0x00, 0x00,
    0xff, 0xff, 0xff, 0xff, 0x70, 0x00, 0x00, 0x00, 0x2c, 0xd1, 0xff, 0xff,
    0x3e, 0xfe, 0xff, 0xff, 0x00, 0x00, 0x00, 0x05, 0x01, 0x00, 0x00, 0x00,
    0x38, 0x00, 0x00, 0x00, 0x2c, 0x00, 0x00, 0x00, 0x14, 0x00, 0x00, 0x00,
    0x00, 0x00, 0x0e, 0x00, 0x14, 0x00, 0x00, 0x00, 0x10, 0x00, 0x0c, 0x00,
    0x08, 0x00, 0x04, 0x00, 0x0e, 0x00, 0x00, 0x00, 0x03, 0x00, 0x00, 0x00,
    0x01, 0x00, 0x00, 0x00, 0x03, 0x00, 0x00, 0x00, 0x01, 0x00, 0x00, 0x00,
    0x01, 0x00, 0x00, 0x00, 0x0d, 0x00, 0x00, 0x00, 0x01, 0x00, 0x00, 0x00,
    0x0c, 0x00, 0x00, 0x00, 0xe8, 0xd1, 0xff, 0xff, 0x14, 0x00, 0x00, 0x00,
    0x0e, 0x00, 0x00, 0x00, 0x20, 0x00, 0x00, 0x00, 0x58, 0x00, 0x00, 0x00,
    0x40, 0x00, 0x00, 0x00, 0x04, 0x00, 0x00, 0x00, 0x01, 0x00, 0x00, 0x00,
    0x07, 0x00, 0x00, 0x00, 0x01, 0x00, 0x00, 0x00, 0x10, 0x00, 0x00, 0x00,
    0x22, 0x00, 0x00, 0x00, 0x73, 0x65, 0x71, 0x75, 0x65, 0x6e, 0x74, 0x69,
    0x61, 0x6c, 0x2f, 0x6d, 0x61, 0x78, 0x5f, 0x70, 0x6f, 0x6f, 0x6c, 0x69,
    0x6e, 0x67, 0x32, 0x64, 0x5f, 0x31, 0x2f, 0x4d, 0x61, 0x78, 0x50, 0x6f,
    0x6f, 0x6c, 0x00, 0x00, 0x04, 0x00, 0x00, 0x00, 0xff, 0xff, 0xff, 0xff,
    0x07, 0x00, 0x00, 0x00, 0x01, 0x00, 0x00, 0x00, 0x10, 0x00, 0x00, 0x00,
    0xe4, 0xd1, 0xff, 0xff, 0x1a, 0xfe, 0xff, 0xff, 0x00, 0x00, 0x00, 0x01,
    0x24, 0x00, 0x00, 0x00, 0x18, 0x00, 0x00, 0x00, 0x04, 0x00, 0x00, 0x00,
    0x0c, 0xfe, 0xff, 0xff, 0x01, 0x00, 0x00, 0x00, 0x01, 0x00, 0x00, 0x00,
    0x00, 0x00, 0x00, 0x01, 0x01, 0x00, 0x00, 0x00, 0x0c, 0x00, 0x00, 0x00,
    0x03, 0x00, 0x00, 0x00, 0x0b, 0x00, 0x00, 0x00, 0x09, 0x00, 0x00, 0x00,
    0x02, 0x00, 0x00, 0x00, 0x90, 0xd2, 0xff, 0xff, 0x14, 0x00, 0x00, 0x00,
    0x0d, 0x00, 0x00, 0x00, 0x20, 0x00, 0x00, 0x00, 0xb8, 0x00, 0x00, 0x00,
    0xa0, 0x00, 0x00, 0x00, 0x04, 0x00, 0x00, 0x00, 0x01, 0x00, 0x00, 0x00,
    0x15, 0x00, 0x00, 0x00, 0x01, 0x00, 0x00, 0x00, 0x10, 0x00, 0x00, 0x00,
    0x83, 0x00, 0x00, 0x00, 0x73, 0x65, 0x71, 0x75, 0x65, 0x6e, 0x74, 0x69,
    0x61, 0x6c, 0x2f, 0x63, 0x6f, 0x6e, 0x76, 0x32, 0x64, 0x5f, 0x31, 0x2f,
    0x52, 0x65, 0x6c, 0x75, 0x3b, 0x73, 0x65, 0x71, 0x75, 0x65, 0x6e, 0x74,
    0x69, 0x61, 0x6c, 0x2f, 0x63, 0x6f, 0x6e, 0x76, 0x32, 0x64, 0x5f, 0x31,
    0x2f, 0x42, 0x69, 0x61, 0x73, 0x41, 0x64, 0x64, 0x3b, 0x73, 0x65, 0x71,
    0x75, 0x65, 0x6e, 0x74, 0x69, 0x61, 0x6c, 0x2f, 0x63, 0x6f, 0x6e, 0x76,
    0x32, 0x64, 0x5f, 0x31, 0x2f, 0x43, 0x6f, 0x6e, 0x76, 0x32, 0x44, 0x3b,
    0x73, 0x65, 0x71, 0x75, 0x65, 0x6e, 0x74, 0x69, 0x61, 0x6c, 0x2f, 0x63,
    0x6f, 0x6e, 0x76, 0x32, 0x64, 0x5f, 0x31, 0x2f, 0x42, 0x69, 0x61, 0x73,
    0x41, 0x64, 0x64, 0x2f, 0x52, 0x65, 0x61, 0x64, 0x56, 0x61, 0x72, 0x69,
    0x61, 0x62, 0x6c, 0x65, 0x4f, 0x70, 0x2f, 0x72, 0x65, 0x73, 0x6f, 0x75,
    0x72, 0x63, 0x65, 0x00, 0x04, 0x00, 0x00, 0x00, 0xff, 0xff, 0xff, 0xff,
    0x15, 0x00, 0x00, 0x00, 0x01, 0x00, 0x00, 0x00, 0x10, 0x00, 0x00, 0x00,
    0xfc, 0xd3, 0xff, 0xff, 0x00, 0x00, 0x0e, 0x00, 0x1a, 0x00, 0x08, 0x00,
    0x0c, 0x00, 0x10, 0x00, 0x07, 0x00, 0x14, 0x00, 0x0e, 0x00, 0x00, 0x00,
    0x00, 0x00, 0x00, 0x05, 0x01, 0x00, 0x00, 0x00, 0x3c, 0x00, 0x00, 0x00,
    0x30, 0x00, 0x00, 0x00, 0x14, 0x00, 0x00, 0x00, 0x00, 0x00, 0x0e, 0x00,
    0x18, 0x00, 0x17, 0x00, 0x10, 0x00, 0x0c, 0x00, 0x08, 0x00, 0x04, 0x00,
    0x0e, 0x00, 0x00, 0x00, 0x03, 0x00, 0x00, 0x00, 0x03, 0x00, 0x00, 0x00,
    0x03, 0x00, 0x00, 0x00, 0x03, 0x00, 0x00, 0x00, 0x00, 0x00, 0x00, 0x01,
    0x01, 0x00, 0x00, 0x00, 0x0b, 0x00, 0x00, 0x00, 0x01, 0x00, 0x00, 0x00,
    0x0a, 0x00, 0x00, 0x00, 0x2c, 0xff, 0xff, 0xff, 0x11, 0x00, 0x00, 0x00,
    0x00, 0x00, 0x00, 0x11, 0x01, 0x00, 0x00, 0x00, 0xcc, 0xd3, 0xff, 0xff,
    0x14, 0x00, 0x00, 0x00, 0x0c, 0x00, 0x00, 0x00, 0x20, 0x00, 0x00, 0x00,
    0x58, 0x00, 0x00, 0x00, 0x40, 0x00, 0x00, 0x00, 0x04, 0x00, 0x00, 0x00,
    0x01, 0x00, 0x00, 0x00, 0x15, 0x00, 0x00, 0x00, 0x01, 0x00, 0x00, 0x00,
    0x08, 0x00, 0x00, 0x00, 0x20, 0x00, 0x00, 0x00, 0x73, 0x65, 0x71, 0x75,
    0x65, 0x6e, 0x74, 0x69, 0x61, 0x6c, 0x2f, 0x6d, 0x61, 0x78, 0x5f, 0x70,
    0x6f, 0x6f, 0x6c, 0x69, 0x6e, 0x67, 0x32, 0x64, 0x2f, 0x4d, 0x61, 0x78,
    0x50, 0x6f, 0x6f, 0x6c, 0x00, 0x00, 0x00, 0x00, 0x04, 0x00, 0x00, 0x00,
    0xff, 0xff, 0xff, 0xff, 0x15, 0x00, 0x00, 0x00, 0x01, 0x00, 0x00, 0x00,
    0x08, 0x00, 0x00, 0x00, 0xd8, 0xd4, 0xff, 0xff, 0x00, 0x00, 0x0e, 0x00,
    0x14, 0x00, 0x00, 0x00, 0x08, 0x00, 0x0c, 0x00, 0x07, 0x00, 0x10, 0x00,
    0x0e, 0x00, 0x00, 0x00, 0x00, 0x00, 0x00, 0x01, 0x30, 0x00, 0x00, 0x00,
    0x24, 0x00, 0x00, 0x00, 0x10, 0x00, 0x00, 0x00, 0x0c, 0x00, 0x10, 0x00,
    0x00, 0x00, 0x04, 0x00, 0x08, 0x00, 0x0f, 0x00, 0x0c, 0x00, 0x00, 0x00,
    0x01, 0x00, 0x00, 0x00, 0x01, 0x00, 0x00, 0x00, 0x00, 0x00, 0x00, 0x01,
    0x01, 0x00, 0x00, 0x00, 0x0a, 0x00, 0x00, 0x00, 0x03, 0x00, 0x00, 0x00,
    0x00, 0x00, 0x00, 0x00, 0x08, 0x00, 0x00, 0x00, 0x01, 0x00, 0x00, 0x00,
    0x0c, 0x00, 0x10, 0x00, 0x0b, 0x00, 0x00, 0x00, 0x0c, 0x00, 0x04, 0x00,
    0x0c, 0x00, 0x00, 0x00, 0x03, 0x00, 0x00, 0x00, 0x00, 0x00, 0x00, 0x03,
    0x01, 0x00, 0x00, 0x00, 0xac, 0xd4, 0xff, 0xff, 0x14, 0x00, 0x00, 0x00,
    0x0b, 0x00, 0x00, 0x00, 0x20, 0x00, 0x00, 0x00, 0xb0, 0x00, 0x00, 0x00,
    0x98, 0x00, 0x00, 0x00, 0x04, 0x00, 0x00, 0x00, 0x01, 0x00, 0x00, 0x00,
    0x40, 0x00, 0x00, 0x00, 0x03, 0x00, 0x00, 0x00, 0x08, 0x00, 0x00, 0x00,
    0x7b, 0x00, 0x00, 0x00, 0x73, 0x65, 0x71, 0x75, 0x65, 0x6e, 0x74, 0x69,
    0x61, 0x6c, 0x2f, 0x63, 0x6f, 0x6e, 0x76, 0x32, 0x64, 0x2f, 0x52, 0x65,
    0x6c, 0x75, 0x3b, 0x73, 0x65, 0x71, 0x75, 0x65, 0x6e, 0x74, 0x69, 0x61,
    0x6c, 0x2f, 0x63, 0x6f, 0x6e, 0x76, 0x32, 0x64, 0x2f, 0x42, 0x69, 0x61,
    0x73, 0x41, 0x64, 0x64, 0x3b, 0x73, 0x65, 0x71, 0x75, 0x65, 0x6e, 0x74,
    0x69, 0x61, 0x6c, 0x2f, 0x63, 0x6f, 0x6e, 0x76, 0x32, 0x64, 0x2f, 0x43,
    0x6f, 0x6e, 0x76, 0x32, 0x44, 0x3b, 0x73, 0x65, 0x71, 0x75, 0x65, 0x6e,
    0x74, 0x69, 0x61, 0x6c, 0x2f, 0x63, 0x6f, 0x6e, 0x76, 0x32, 0x64, 0x2f,
    0x42, 0x69, 0x61, 0x73, 0x41, 0x64, 0x64, 0x2f, 0x52, 0x65, 0x61, 0x64,
    0x56, 0x61, 0x72, 0x69, 0x61, 0x62, 0x6c, 0x65, 0x4f, 0x70, 0x2f, 0x72,
    0x65, 0x73, 0x6f, 0x75, 0x72, 0x63, 0x65, 0x00, 0x04, 0x00, 0x00, 0x00,
    0xff, 0xff, 0xff, 0xff, 0x40, 0x00, 0x00, 0x00, 0x03, 0x00, 0x00, 0x00,
    0x08, 0x00, 0x00, 0x00, 0x00, 0xd5, 0xff, 0xff, 0x0a, 0xd6, 0xff, 0xff,
    0x04, 0x00, 0x00, 0x00, 0x00, 0x08, 0x00, 0x00, 0x5f, 0x01, 0x4f, 0xbe,
    0xf7, 0x6f, 0x9b, 0xbb, 0xec, 0x22, 0x28, 0xbf, 0x69, 0x52, 0xe2, 0xbe,
    0x22, 0xeb, 0x54, 0x3e, 0xb8, 0xb4, 0x1a, 0x3e, 0x1d, 0x0a, 0x65, 0xbe,
    0xc3, 0x0d, 0x56, 0xbf, 0x4c, 0xea, 0x13, 0x3f, 0x2b, 0x89, 0x2a, 0xbd,
    0x02, 0xdd, 0x50, 0xbf, 0x8e, 0xc1, 0xf9, 0xbe, 0x4d, 0xc7, 0xef, 0xbd,
    0x95, 0x0b, 0xbc, 0x3d, 0x87, 0x9c, 0xb9, 0x3c, 0xe2, 0x89, 0x1a, 0x3e,
    0xd1, 0x16, 0x9c, 0xbe, 0xae, 0x1d, 0x40, 0xbd, 0xd2, 0xe4, 0xd2, 0xbe,
    0x53, 0xc9, 0xa2, 0xbe, 0xa8, 0xce, 0x21, 0xbe, 0x56, 0x83, 0x98, 0xbe,
    0x01, 0xd1, 0x6f, 0x3d, 0x90, 0xc5, 0xaf, 0x3e, 0x1e, 0x04, 0x5b, 0xbe,
    0x83, 0x06, 0xad, 0xbd, 0xc2, 0x6e, 0x2f, 0x3e, 0xfb, 0xf0, 0x4d, 0x3c,
    0x08, 0x0b, 0xba, 0xbd, 0xf0, 0xef, 0xba, 0xbd, 0x08, 0x9c, 0xed, 0xbc,
    0x8f, 0x6d, 0x17, 0x3e, 0x5e, 0xb6, 0x3f, 0xbe, 0xbf, 0x68, 0x03, 0x3e,
    0x6a, 0x7b, 0xa4, 0xbd, 0xad, 0x54, 0x5e, 0xbd, 0xe2, 0x12, 0x96, 0x3d,
    0x89, 0xc6, 0x19, 0xbe, 0x16, 0x54, 0x28, 0x3e, 0xb8, 0xc8, 0xbf, 0xbe,
    0xfe, 0x0d, 0x8e, 0x3d, 0x0d, 0xb1, 0x52, 0x3d, 0x60, 0x56, 0xb3, 0xbd,
    0xd2, 0x31, 0x2c, 0xbd, 0xa7, 0x68, 0xf7, 0x3c, 0x4c, 0x96, 0x0f, 0x3e,
    0xb4, 0x32, 0xce, 0x3d, 0xba, 0xfc, 0x67, 0xbe, 0xca, 0xb3, 0x2f, 0x3d,
    0x4f, 0x41, 0x2e, 0xbe, 0xdf, 0x3e, 0x74, 0xbd, 0xfa, 0xaf, 0xba, 0xbd,
    0xac, 0x9e, 0x45, 0x3e, 0xb6, 0xf7, 0x5c, 0x3d, 0x7c, 0xf2, 0x2c, 0xbe,
    0x90, 0x4f, 0x67, 0xbe, 0x8b, 0x7a, 0x3e, 0x3d, 0x53, 0x01, 0x00, 0xbb,
    0xc2, 0xda, 0x4e, 0x3d, 0xa5, 0xe2, 0x0f, 0xbc, 0xc3, 0xf8, 0x98, 0xbc,
    0x59, 0x18, 0xba, 0xbd, 0xae, 0x26, 0x4d, 0x3e, 0x4f, 0x48, 0x81, 0xbb,
    0x5c, 0xb1, 0xeb, 0x3e, 0x3b, 0x2f, 0x3c, 0xbd, 0xb5, 0x49, 0x5c, 0x3c,
    0x17, 0x30, 0x20, 0xbd, 0x7a, 0x3b, 0xf4, 0xbc, 0xc9, 0x7e, 0x5f, 0x3f,
    0xf6, 0x4c, 0xbb, 0xbd, 0x1f, 0xdd, 0x61, 0x3d, 0x28, 0x04, 0xe9, 0x3d,
    0x07, 0x29, 0x0f, 0xbd, 0x1b, 0xa2, 0xf3, 0xbc, 0x6b, 0x7c, 0x14, 0xbd,
    0xbe, 0x5a, 0xfd, 0xbc, 0x66, 0x99, 0x60, 0xbc, 0xeb, 0x73, 0xa7, 0xbd,
    0xe7, 0xfa, 0x8b, 0x3d, 0x27, 0x77, 0xe7, 0x3d, 0xb1, 0xb3, 0x9a, 0xbd,
    0xf8, 0x05, 0x36, 0xbd, 0x96, 0xcd, 0x0a, 0xbd, 0x84, 0x07, 0x06, 0xbd,
    0xee, 0xb3, 0x62, 0xbd, 0xf0, 0x90, 0xa6, 0xbd, 0xc8, 0x33, 0xa7, 0x3e,
    0x97, 0x5c, 0x02, 0x3e, 0xec, 0x22, 0xd2, 0xbd, 0x4f, 0x09, 0xc0, 0xbc,
    0x69, 0xf7, 0x16, 0xbd, 0xd5, 0x0c, 0x72, 0xbc, 0xfe, 0xeb, 0x45, 0xbc,
    0x41, 0x67, 0xbc, 0xbd, 0x69, 0x7d, 0xe0, 0x3e, 0xf2, 0x31, 0xc6, 0xbd,
    0x4e, 0xfb, 0xf6, 0xbe, 0x1b, 0x1e, 0x2f, 0xbd, 0x17, 0xc6, 0xb3, 0xbd,
    0xd5, 0xda, 0x03, 0xbf, 0xaa, 0x77, 0x35, 0xbe, 0xc0, 0x74, 0x95, 0xbe,
    0xd6, 0x1f, 0x05, 0xbe, 0x8a, 0x87, 0xa8, 0xbb, 0xca, 0x19, 0x95, 0xbe,
    0x13, 0xa8, 0xb3, 0xbd, 0x0b, 0x81, 0x49, 0xbc, 0xd7, 0xb4, 0xc2, 0xbe,
    0xd7, 0xed, 0x83, 0x3d, 0xe7, 0x87, 0x78, 0xbe, 0xdd, 0x38, 0x02, 0xbe,
    0x54, 0x93, 0x89, 0x3e, 0x69, 0x95, 0x85, 0xbd, 0x91, 0x43, 0xa4, 0xbc,
    0x80, 0x49, 0xed, 0x3d, 0x00, 0x2c, 0x84, 0xbe, 0x84, 0x32, 0x8d, 0x3e,
    0x7b, 0x40, 0xee, 0xbc, 0x4c, 0x0e, 0x64, 0x3e, 0x11, 0xc5, 0x60, 0x3e,
    0x35, 0xd7, 0xfd, 0x3d, 0x76, 0x09, 0x33, 0x3e, 0xd9, 0x5b, 0x2c, 0x3d,
    0xcf, 0x55, 0x69, 0xbe, 0x44, 0x95, 0xef, 0x3d, 0x14, 0x83, 0x88, 0x3e,
    0x77, 0x9b, 0xc9, 0x3d, 0x0a, 0xbe, 0xa3, 0xbd, 0x71, 0x6d, 0x95, 0xbd,
    0x49, 0x00, 0x5f, 0xbe, 0xb9, 0x55, 0x29, 0xbe, 0xdf, 0x97, 0x9d, 0xbc,
    0x72, 0xc0, 0xaa, 0xbe, 0x6b, 0xbe, 0xd2, 0xbd, 0xab, 0x0b, 0xb1, 0xbe,
    0x81, 0x80, 0xc3, 0xbe, 0xd5, 0xdc, 0x6c, 0xbd, 0xca, 0x6f, 0x1a, 0xbe,
    0x81, 0x2e, 0xef, 0xbd, 0xf7, 0x2c, 0x6c, 0x3d, 0xac, 0xf3, 0x41, 0x3c,
    0xf5, 0xc3, 0xaa, 0xbd, 0x95, 0xc0, 0xa2, 0xbd, 0x6f, 0xc5, 0xa6, 0xbd,
    0x0e, 0x2b, 0x59, 0xbd, 0x1c, 0xd9, 0xbd, 0xbc, 0x50, 0xb9, 0xf0, 0x38,
    0x41, 0x82, 0xba, 0xbc, 0x7f, 0x37, 0x9c, 0x3d, 0xa1, 0x2b, 0x07, 0x3d,
    0x4c, 0x7c, 0x16, 0x3f, 0x1b, 0x6d, 0x24, 0x3e, 0xaa, 0x89, 0x3b, 0xbe,
    0xec, 0xdd, 0x77, 0x3d, 0x0a, 0xe8, 0x22, 0xbd, 0x28, 0xd4, 0x58, 0xbd,
    0x6b, 0x6f, 0xf8, 0xbc, 0x44, 0xf5, 0xaa, 0x3d, 0xed, 0x73, 0x1d, 0x3e,
    0xd6, 0xce, 0x75, 0x3e, 0xfb, 0xde, 0x92, 0xbd, 0xb1, 0x86, 0xfd, 0xbe,
    0xbc, 0x57, 0x81, 0xbe, 0xe6, 0x07, 0x95, 0x3c, 0x6f, 0xec, 0x96, 0x3d,
    0x26, 0x1b, 0x3d, 0xbd, 0x81, 0x54, 0x94, 0xbe, 0x03, 0x6a, 0xb0, 0x3e,
    0x30, 0xb0, 0x6c, 0xbd, 0x43, 0xc4, 0x47, 0xbf, 0x62, 0x12, 0xf6, 0xbe,
    0x41, 0xb5, 0x17, 0xbd, 0x78, 0x90, 0x73, 0x3e, 0xe1, 0xfc, 0xdb, 0x3b,
    0xd2, 0x64, 0x3b, 0xbe, 0x3a, 0xe8, 0xde, 0xbd, 0xb0, 0x98, 0x01, 0xbd,
    0x53, 0x03, 0x8c, 0xbe, 0xe2, 0x50, 0x0c, 0xbe, 0xe6, 0x33, 0xfa, 0xbc,
    0x87, 0x66, 0xa6, 0x3e, 0xd2, 0xb3, 0x05, 0x3d, 0x69, 0xce, 0xa0, 0x3e,
    0x57, 0x51, 0xf7, 0xbe, 0xf9, 0x92, 0x95, 0xbd, 0xab, 0xaa, 0x9d, 0x3e,
    0x62, 0x42, 0x90, 0x3e, 0x8b, 0xac, 0xf6, 0x3d, 0xe7, 0x79, 0x8b, 0xbe,
    0x1e, 0x36, 0xbc, 0x3c, 0x48, 0xa3, 0x85, 0xbc, 0x4f, 0x2c, 0x0c, 0xbe,
    0x38, 0xa8, 0xa1, 0xbe, 0x57, 0x49, 0x0f, 0xbd, 0xbd, 0x84, 0x19, 0xbe,
    0xc8, 0x55, 0x25, 0xbe, 0x45, 0x21, 0x13, 0x3e, 0x89, 0xdc, 0x25, 0xbf,
    0x86, 0x30, 0x54, 0xbe, 0x4f, 0xa4, 0x21, 0xbd, 0xed, 0x60, 0x5f, 0xbe,
    0xa4, 0xb5, 0x18, 0xbd, 0x7c, 0xcf, 0x88, 0xbd, 0xa4, 0x0b, 0x47, 0xbd,
    0x11, 0x85, 0x44, 0xbd, 0xc3, 0x94, 0x0a, 0xbf, 0x9e, 0x1c, 0xc7, 0x3e,
    0x72, 0x59, 0x7d, 0xbd, 0x65, 0xdb, 0xe2, 0xbd, 0x9b, 0x30, 0x08, 0xbc,
    0x30, 0x68, 0x3c, 0xbd, 0xea, 0x1f, 0xab, 0xbd, 0x9c, 0x3c, 0x67, 0x3b,
    0xc7, 0x5f, 0x6f, 0xbf, 0x89, 0x3d, 0x1f, 0xbe, 0x1d, 0xfb, 0x05, 0x3d,
    0x83, 0xe4, 0x25, 0x3d, 0xf7, 0x95, 0x83, 0xbd, 0x7b, 0xcc, 0x48, 0xbd,
    0xda, 0xd8, 0x2b, 0x3e, 0x66, 0xc9, 0xf9, 0x3d, 0x94, 0xeb, 0x70, 0xbf,
    0xaa, 0x29, 0xca, 0x3c, 0x83, 0xa5, 0x09, 0xbf, 0x8a, 0xbf, 0x62, 0xbe,
    0x6e, 0x24, 0x54, 0xbe, 0x4f, 0xc9, 0x06, 0xbe, 0x73, 0xed, 0x91, 0xbe,
    0x3f, 0x59, 0xfd, 0xbe, 0x7f, 0xd2, 0xb6, 0xbe, 0xa5, 0x3c, 0xb0, 0xbe,
    0x71, 0x8a, 0x06, 0xbf, 0x9c, 0xa2, 0x9a, 0xbe, 0xaf, 0xca, 0xed, 0x3d,
    0x77, 0x1a, 0x2a, 0x3d, 0x91, 0xfd, 0xc3, 0x3b, 0x89, 0x82, 0xad, 0xbe,
    0x22, 0xa4, 0x88, 0x3d, 0xa4, 0x01, 0x31, 0x3d, 0x5a, 0xba, 0xf8, 0xbe,
    0x65, 0xff, 0x03, 0xbe, 0x69, 0x7f, 0x2f, 0x3d, 0x45, 0xa2, 0x46, 0x3d,
    0xf3, 0xd9, 0x35, 0x3b, 0x87, 0x89, 0x85, 0xbe, 0x51, 0xa6, 0x88, 0x3c,
    0x73, 0x8b, 0x35, 0xbe, 0x8b, 0xb5, 0x95, 0xbd, 0xa4, 0x74, 0x21, 0x3c,
    0x7d, 0xd4, 0x45, 0xbc, 0x86, 0x37, 0xa9, 0x3d, 0xa0, 0x67, 0x1a, 0xbd,
    0xeb, 0xd2, 0x57, 0xbd, 0xad, 0x91, 0x91, 0x3e, 0x75, 0xe9, 0xaf, 0xbb,
    0x03, 0xda, 0xe3, 0xbd, 0x84, 0xc1, 0xe3, 0x3e, 0x6c, 0x75, 0x44, 0xbd,
    0x1f, 0x3a, 0xe5, 0x3b, 0xfb, 0x2a, 0x77, 0xbe, 0x48, 0x7e, 0xb7, 0xbe,
    0xe4, 0x03, 0x11, 0x3c, 0x1b, 0xeb, 0x13, 0x3f, 0x02, 0xf0, 0x98, 0xbe,
    0x1e, 0x67, 0x01, 0xbe, 0x57, 0x0e, 0x5d, 0xbd, 0xd7, 0xf5, 0xad, 0xbc,
    0x1b, 0xe1, 0x4f, 0xbe, 0x90, 0xfd, 0x0c, 0xbe, 0x90, 0x3f, 0x07, 0xbc,
    0xe5, 0x5c, 0xed, 0xbc, 0xa2, 0x22, 0x19, 0xbe, 0x0e, 0x89, 0x68, 0xbe,
    0x2b, 0x67, 0x3e, 0xbc, 0x3c, 0x53, 0xc1, 0xbc, 0x93, 0x3e, 0xb2, 0xbd,
    0xc3, 0xaa, 0x0b, 0xbc, 0x36, 0x29, 0xbe, 0xbd, 0xa4, 0x7e, 0xad, 0x3e,
    0xfb, 0x43, 0x8f, 0xbd, 0x74, 0xa7, 0x6a, 0xbe, 0x64, 0xe6, 0x83, 0x3c,
    0x91, 0x83, 0x82, 0x39, 0x92, 0xcc, 0x54, 0xbd, 0x2f, 0x41, 0xea, 0x3d,
    0xc7, 0x59, 0xa7, 0xbd, 0xaf, 0xc1, 0xfa, 0x3d, 0xc6, 0x92, 0x55, 0x3d,
    0xf0, 0xb9, 0x9f, 0xbe, 0xc2, 0x33, 0xce, 0xbe, 0x34, 0xeb, 0x88, 0xbd,
    0xd9, 0xbc, 0xa4, 0xbe, 0xca, 0x6e, 0x0f, 0xbe, 0x4f, 0x46, 0x1b, 0xbe,
    0x48, 0x9e, 0x7d, 0x3d, 0xeb, 0x99, 0xeb, 0x3b, 0x18, 0x61, 0xa0, 0x3e,
    0x4d, 0x9c, 0x88, 0xbe, 0xbd, 0x07, 0x2f, 0xbe, 0x0b, 0x61, 0xf8, 0xbe,
    0x1a, 0x6a, 0x9b, 0xbd, 0xef, 0x72, 0x55, 0xbd, 0x81, 0x93, 0x91, 0xbd,
    0xe7, 0xa5, 0x81, 0xbe, 0xd6, 0x73, 0x58, 0x3b, 0xb1, 0xe8, 0x61, 0xbe,
    0x44, 0xdb, 0x10, 0xbe, 0x3e, 0x57, 0xb4, 0xbe, 0x94, 0x22, 0x15, 0xbe,
    0x84, 0x91, 0x52, 0xbd, 0x6d, 0x6e, 0xdf, 0xbd, 0x4e, 0x95, 0xbc, 0xbc,
    0x2f, 0xee, 0x02, 0x3e, 0xa7, 0x1e, 0xc6, 0xbd, 0x41, 0x03, 0xf0, 0xbd,
    0x8a, 0x47, 0x5c, 0xbe, 0x4d, 0x66, 0xfa, 0x3d, 0x2f, 0xf3, 0xf0, 0x3d,
    0x76, 0x79, 0xd8, 0x3d, 0x6d, 0xe0, 0x42, 0x3e, 0x07, 0x11, 0x67, 0x3d,
    0x3f, 0x85, 0xaa, 0xbc, 0xbd, 0x26, 0xc2, 0x3d, 0x10, 0x96, 0xce, 0xbe,
    0xa3, 0x22, 0x08, 0xbd, 0xb1, 0x03, 0xdb, 0xbc, 0xa5, 0x82, 0xa8, 0x3a,
    0xa0, 0xaf, 0x16, 0xbe, 0x59, 0x9e, 0x91, 0x3e, 0x26, 0x5c, 0x51, 0x3c,
    0x93, 0x9d, 0xcc, 0x3d, 0xde, 0xbd, 0xdb, 0xbe, 0x56, 0x23, 0xa1, 0x3d,
    0xb9, 0x4b, 0xf3, 0x3b, 0xaf, 0xdd, 0x64, 0x3d, 0xc6, 0x21, 0x54, 0x3e,
    0x8f, 0xea, 0x60, 0x3e, 0x2e, 0x36, 0x20, 0xbd, 0xac, 0x48, 0x45, 0xbd,
    0x72, 0x85, 0xaf, 0xbe, 0x20, 0xcd, 0x98, 0xbd, 0x28, 0xd1, 0x9c, 0xbc,
    0xd3, 0x2d, 0xca, 0x3e, 0x95, 0x17, 0xdc, 0x3d, 0xb7, 0x99, 0xdf, 0xbd,
    0x19, 0xea, 0x39, 0xbb, 0x2b, 0x5d, 0xae, 0xbd, 0x80, 0x72, 0x8d, 0xbe,
    0x7b, 0x91, 0x8c, 0xbe, 0x80, 0xc3, 0x15, 0xbe, 0x40, 0x80, 0xd7, 0x3e,
    0x56, 0x0c, 0x43, 0xbd, 0x02, 0x98, 0x0b, 0xbe, 0x80, 0x5c, 0xa4, 0xbe,
    0x36, 0x9d, 0x93, 0xbe, 0x3b, 0xac, 0x70, 0xbd, 0xd5, 0xb9, 0x24, 0x3e,
    0x07, 0x6e, 0x84, 0xbe, 0x28, 0x01, 0x0b, 0x3d, 0x9f, 0x6e, 0x6d, 0x3e,
    0x92, 0xec, 0x7b, 0x3c, 0x85, 0xce, 0xe4, 0xbe, 0x4b, 0xfc, 0xf1, 0xbe,
    0x44, 0xb9, 0x26, 0xbe, 0x6e, 0x81, 0xfa, 0x3e, 0x57, 0x83, 0x18, 0x3d,
    0x53, 0x24, 0xac, 0x3e, 0x5f, 0x73, 0xd1, 0xbd, 0xdf, 0x92, 0x7f, 0xbc,
    0xd5, 0xf3, 0x10, 0xbe, 0x4b, 0x33, 0x85, 0xbe, 0x44, 0xbe, 0x31, 0xbd,
    0xc2, 0x95, 0x8f, 0xbc, 0x5f, 0xa9, 0x3d, 0x3d, 0x2d, 0xb2, 0x05, 0x3d,
    0xe6, 0x3b, 0x87, 0x3d, 0x8d, 0x76, 0x80, 0xbc, 0x8d, 0xee, 0xbe, 0x3c,
    0xb2, 0x28, 0xed, 0xbc, 0x9f, 0x9d, 0xc4, 0xbd, 0xb1, 0xbd, 0xab, 0x3e,
    0x2f, 0xc4, 0xa3, 0xbc, 0x40, 0x3a, 0x3e, 0xbd, 0xba, 0x8a, 0xc0, 0x3d,
    0xb2, 0x3d, 0x64, 0x3c, 0x4b, 0x4e, 0x6c, 0xbf, 0x0f, 0x21, 0x21, 0xbf,
    0xc1, 0x9d, 0x10, 0xbe, 0x51, 0xc7, 0xab, 0x3e, 0xbc, 0x4d, 0x38, 0x3d,
    0xfc, 0xc4, 0x1f, 0x3e, 0x5c, 0x02, 0xf1, 0xbe, 0x6b, 0x84, 0xcd, 0xbd,
    0x93, 0x3e, 0x0c, 0xbe, 0xed, 0x08, 0x27, 0xbe, 0xca, 0x13, 0x2f, 0xbe,
    0x89, 0x3b, 0xe0, 0x3d, 0x5e, 0x28, 0xd3, 0x3e, 0x34, 0x93, 0x12, 0xbd,
    0xb1, 0xab, 0x21, 0xbd, 0x0a, 0xbf, 0x25, 0xbf, 0x04, 0x68, 0x47, 0x3e,
    0x0f, 0xe6, 0x0a, 0x3d, 0x2d, 0x91, 0x01, 0xbe, 0xc4, 0xdb, 0xf2, 0x3c,
    0xa3, 0x05, 0x77, 0xbe, 0x4d, 0xf2, 0xf7, 0x3d, 0x72, 0xc4, 0x94, 0x3d,
    0xa6, 0x7f, 0x40, 0xbf, 0xfc, 0x94, 0xd1, 0x3d, 0x02, 0x67, 0xc6, 0x3d,
    0x76, 0x93, 0x5e, 0x3d, 0x17, 0x8f, 0x9e, 0x3d, 0xfe, 0x77, 0x10, 0xbf,
    0x74, 0x63, 0x45, 0xbf, 0x1b, 0xf9, 0xba, 0xbe, 0xba, 0x12, 0x7e, 0x3e,
    0x2c, 0xe4, 0xad, 0x3c, 0xb3, 0xbb, 0x3b, 0x3d, 0x91, 0xb8, 0x49, 0xbd,
    0x46, 0xca, 0x16, 0xbe, 0xee, 0xed, 0xa6, 0xbe, 0x35, 0xf4, 0xb4, 0xbe,
    0xcf, 0x14, 0x9b, 0xba, 0xed, 0x40, 0x72, 0x3e, 0x6e, 0xfe, 0x3c, 0x3c,
    0x5f, 0x04, 0x13, 0xbd, 0x8d, 0x09, 0x0a, 0x3e, 0x17, 0x57, 0xd2, 0x3c,
    0x21, 0x9d, 0xb1, 0xbe, 0x02, 0x16, 0xe5, 0xbe, 0x94, 0x02, 0xb9, 0x3d,
    0x25, 0x52, 0x87, 0xbc, 0xc7, 0x26, 0xe2, 0xbc, 0x2d, 0x46, 0x9a, 0xbd,
    0xe1, 0x6c, 0x96, 0xbe, 0x62, 0x0f, 0x00, 0x3e, 0xad, 0x6c, 0x1a, 0xbf,
    0x82, 0x04, 0xfb, 0xbe, 0xfe, 0x52, 0xcb, 0x3d, 0x63, 0xc3, 0x9d, 0xbe,
    0xa2, 0x59, 0x3d, 0xbd, 0xd5, 0x77, 0x25, 0xbe, 0x71, 0x8d, 0xd6, 0xbd,
    0x39, 0x6b, 0x2c, 0x3d, 0x1f, 0x06, 0xc9, 0xbe, 0x3d, 0x6c, 0x7d, 0x3d,
    0x8b, 0xe5, 0x25, 0x3f, 0xdd, 0x7c, 0x3a, 0xbf, 0xc6, 0xca, 0xc1, 0x3d,
    0x34, 0xfa, 0xc3, 0x3d, 0x2f, 0x3a, 0x44, 0xbd, 0x79, 0xca, 0xda, 0x3e,
    0xfc, 0x3f, 0x85, 0xbd, 0x91, 0xd2, 0xed, 0x3c, 0xb8, 0xe8, 0xe9, 0xbb,
    0x0d, 0xb5, 0x1e, 0xbf, 0xed, 0x52, 0xd7, 0x3c, 0xc4, 0xcb, 0x94, 0x3c,
    0x97, 0x84, 0x13, 0xbe, 0x5c, 0x2a, 0x56, 0xbd, 0xd7, 0xa6, 0x45, 0xbe,
    0x62, 0x14, 0xb8, 0xbe, 0x96, 0x85, 0x68, 0x3e, 0x1b, 0xa0, 0x9a, 0xbe,
    0x30, 0x27, 0x90, 0xbd, 0x89, 0x8f, 0xd4, 0xbc, 0xbe, 0x26, 0x27, 0xbe,
    0xca, 0x0e, 0x82, 0xbd, 0xe4, 0xc8, 0x46, 0x3b, 0xdc, 0x7c, 0x3e, 0xbe,
    0xd0, 0xef, 0xd0, 0x3d, 0x4d, 0x3c, 0xd2, 0x3c, 0x34, 0x15, 0x00, 0xbe,
    0xef, 0xb3, 0x93, 0xbd, 0x93, 0x0e, 0xf7, 0x3b, 0x96, 0x58, 0xc9, 0x3c,
    0x58, 0xee, 0x35, 0xbd, 0x78, 0x22, 0x21, 0x3b, 0xa5, 0x08, 0xc3, 0x3c,
    0x19, 0x11, 0x6c, 0x3e, 0x0b, 0xbf, 0x87, 0xbe, 0x55, 0xd2, 0x9a, 0xbe,
    0x18, 0x57, 0xcc, 0xbc, 0x00, 0xcc, 0x78, 0x3e, 0x64, 0x90, 0x37, 0xbe,
    0x39, 0x47, 0xfc, 0x3d, 0x29, 0xd3, 0x41, 0xbd, 0xa5, 0x82, 0xa8, 0x3d,
    0x75, 0x04, 0xbd, 0xbe, 0xad, 0x1d, 0xde, 0xbe, 0x03, 0xbc, 0xf8, 0xbd,
    0xbe, 0xb0, 0x75, 0x3e, 0x8f, 0x7d, 0xf6, 0xbd, 0x3b, 0xf2, 0xfb, 0x3c,
    0xc8, 0x4e, 0x4f, 0x3e, 0x1f, 0x40, 0x04, 0xbe, 0x69, 0xa8, 0xbb, 0xbe,
    0x10, 0xbd, 0xae, 0xbe, 0x53, 0x08, 0x6c, 0xbd, 0x52, 0x14, 0x80, 0x3c,
    0xc7, 0xd5, 0xae, 0xbd, 0xe8, 0xfd, 0x19, 0x3e, 0xad, 0xd7, 0x38, 0x3e,
    0xcf, 0x41, 0x88, 0xbe, 0xf3, 0x93, 0x7e, 0x3c, 0x24, 0x44, 0x05, 0xbe,
    0xc8, 0x9f, 0xe6, 0xbd, 0x5a, 0xae, 0x8b, 0x3e, 0xaf, 0xa5, 0x23, 0xbe,
    0x1c, 0x0c, 0xa7, 0x3e, 0xe2, 0xdd, 0xff, 0xff, 0x10, 0x00, 0x00, 0x00,
    0x0a, 0x00, 0x00, 0x00, 0x1c, 0x00, 0x00, 0x00, 0x38, 0x00, 0x00, 0x00,
    0x04, 0x00, 0x00, 0x00, 0x10, 0x00, 0x00, 0x00, 0x04, 0x00, 0x00, 0x00,
    0x01, 0x00, 0x00, 0x00, 0x08, 0x00, 0x00, 0x00, 0x1a, 0x00, 0x00, 0x00,
    0x73, 0x65, 0x71, 0x75, 0x65, 0x6e, 0x74, 0x69, 0x61, 0x6c, 0x2f, 0x63,
    0x6f, 0x6e, 0x76, 0x32, 0x64, 0x5f, 0x31, 0x2f, 0x43, 0x6f, 0x6e, 0x76,
    0x32, 0x44, 0x00, 0x00, 0x58, 0xdd, 0xff, 0xff, 0x62, 0xde, 0xff, 0xff,
    0x04, 0x00, 0x00, 0x00, 0x80, 0x01, 0x00, 0x00, 0x83, 0x40, 0xfc, 0xbd,
    0x97, 0x3d, 0x95, 0x3b, 0x52, 0x5e, 0x59, 0x3d, 0x47, 0xc3, 0x0b, 0xbf,
    0xfa, 0x4b, 0xe7, 0x3c, 0x4f, 0xaa, 0x23, 0xbe, 0xb4, 0xe7, 0xc8, 0x3e,
    0x43, 0xbb, 0x9e, 0xbc, 0xb7, 0xb9, 0xcc, 0x3d, 0x95, 0x24, 0x97, 0x3e,
    0x73, 0x1d, 0xd1, 0x3c, 0x94, 0x12, 0x06, 0x3d, 0x5c, 0xc3, 0x7f, 0x3e,
    0xeb, 0x7e, 0xe6, 0x3d, 0x9e, 0x1c, 0xf4, 0xbd, 0xc9, 0x02, 0x3e, 0x3e,
    0xe2, 0x53, 0x48, 0xbd, 0x8a, 0xa9, 0x6b, 0x3d, 0x58, 0x88, 0x65, 0xbb,
    0xcd, 0xb9, 0x14, 0x3d, 0x6e, 0x31, 0x33, 0xbc, 0x9a, 0xe0, 0x15, 0x3e,
    0xd8, 0xcd, 0x45, 0x3d, 0x03, 0x1a, 0x86, 0xbd, 0xcf, 0x17, 0x06, 0xbd,
    0xf7, 0x00, 0xb3, 0xbd, 0x67, 0xb3, 0xb7, 0xbd, 0x24, 0x14, 0x5f, 0xbd,
    0x9d, 0x77, 0x3f, 0xbd, 0x67, 0x9d, 0x77, 0x3d, 0xdb, 0x72, 0xfc, 0x3b,
    0xda, 0x1c, 0x71, 0xbd, 0x39, 0xd4, 0xb6, 0x3c, 0x15, 0x65, 0x90, 0xbd,
    0xc0, 0x5e, 0xa7, 0x3c, 0xa1, 0xde, 0xbe, 0x3c, 0xb5, 0x59, 0xae, 0xbd,
    0x9e, 0x78, 0xf2, 0xbd, 0x7c, 0x9d, 0xc8, 0x3c, 0x85, 0xe1, 0x60, 0xbd,
    0xe2, 0xb4, 0xcb, 0xbc, 0xb5, 0xf6, 0x46, 0x3d, 0xbd, 0xe1, 0xb6, 0x3c,
    0x3e, 0x4e, 0x3b, 0xbd, 0x76, 0x8e, 0x34, 0x3d, 0x9a, 0xe4, 0x8d, 0xbd,
    0x07, 0x68, 0x95, 0x3c, 0xb4, 0xd2, 0x7a, 0x3d, 0xcd, 0x98, 0x8d, 0x3c,
    0xb9, 0x3e, 0x8a, 0x3d, 0x56, 0xe7, 0x58, 0xbe, 0xfe, 0x00, 0x8e, 0xbd,
    0xc6, 0x79, 0x17, 0x3e, 0x1c, 0x75, 0x54, 0xbe, 0x94, 0x95, 0xab, 0xbd,
    0x61, 0xc2, 0xf9, 0x3c, 0x81, 0xb6, 0xdb, 0xbd, 0xd2, 0x83, 0x8b, 0x3d,
    0xe8, 0xfe, 0x83, 0x3d, 0xec, 0x13, 0xe5, 0xbd, 0xe5, 0x9c, 0x4e, 0xbd,
    0xbd, 0xee, 0xbd, 0x3c, 0xdb, 0x0c, 0x6d, 0xba, 0xb6, 0x27, 0xa7, 0xbe,
    0xf6, 0x3c, 0x0f, 0xbd, 0x35, 0x78, 0x46, 0xbe, 0x5d, 0x4e, 0x0a, 0xbd,
    0x4e, 0x95, 0xb8, 0xbe, 0xe4, 0x5f, 0x16, 0x3e, 0x79, 0x7d, 0xcd, 0x3e,
    0xe3, 0x0f, 0xd9, 0x3e, 0x45, 0x7a, 0x45, 0x3c, 0xa9, 0xda, 0xe6, 0x3d,
    0xb3, 0x4e, 0xd0, 0x3c, 0x56, 0x80, 0xf6, 0x3d, 0x8d, 0x58, 0x95, 0x3d,
    0x8c, 0x5f, 0x88, 0x3d, 0xde, 0x37, 0xc8, 0x3d, 0x76, 0x1b, 0x90, 0xbc,
    0x1b, 0x8c, 0xa4, 0x3d, 0x92, 0xe1, 0x25, 0x3e, 0xf8, 0x41, 0x0e, 0xbe,
    0xd3, 0xd1, 0x54, 0xbd, 0x74, 0x4e, 0x9e, 0x3d, 0x82, 0x2f, 0xba, 0x3e,
    0x00, 0x01, 0x72, 0x3e, 0x2b, 0xb5, 0xa1, 0xbe, 0x61, 0xf6, 0x0c, 0x3e,
    0xae, 0x4a, 0x77, 0x3e, 0x1a, 0xc2, 0xa2, 0x3d, 0xe0, 0xa1, 0xec, 0xbe,
    0xfd, 0x5d, 0x98, 0xbe, 0x08, 0x86, 0x90, 0x3e, 0x2f, 0x0b, 0x74, 0xbd,
    0x46, 0x30, 0x12, 0xbe, 0x9c, 0x02, 0xe8, 0xbc, 0xba, 0xdf, 0xff, 0xff,
    0x10, 0x00, 0x00, 0x00, 0x09, 0x00, 0x00, 0x00, 0x1c, 0x00, 0x00, 0x00,
    0x38, 0x00, 0x00, 0x00, 0x04, 0x00, 0x00, 0x00, 0x08, 0x00, 0x00, 0x00,
    0x04, 0x00, 0x00, 0x00, 0x03, 0x00, 0x00, 0x00, 0x01, 0x00, 0x00, 0x00,
    0x18, 0x00, 0x00, 0x00, 0x73, 0x65, 0x71, 0x75, 0x65, 0x6e, 0x74, 0x69,
    0x61, 0x6c, 0x2f, 0x63, 0x6f, 0x6e, 0x76, 0x32, 0x64, 0x2f, 0x43, 0x6f,
    0x6e, 0x76, 0x32, 0x44, 0x00, 0x00, 0x00, 0x00, 0x30, 0xdf, 0xff, 0xff,
    0x3a, 0xe0, 0xff, 0xff, 0x04, 0x00, 0x00, 0x00, 0x00, 0x01, 0x00, 0x00,
    0xf9, 0xb2, 0xf7, 0xbd, 0xbe, 0x4b, 0x18, 0x3e, 0x14, 0xd2, 0xc9, 0x3c,
    0x13, 0xb8, 0x88, 0x3e, 0x62, 0x80, 0xbb, 0xbd, 0xc0, 0xe7, 0xb3, 0xbe,
    0xa0, 0x28, 0xd0, 0x3e, 0x6e, 0xa6, 0x27, 0xbe, 0x37, 0xd2, 0x86, 0xbe,
    0xa6, 0x19, 0x7f, 0x3d, 0x1b, 0xa7, 0x29, 0xbe, 0x1a, 0x7c, 0xc4, 0xbe,
    0x5e, 0x32, 0x0d, 0x3e, 0x3f, 0xda, 0x0c, 0x3d, 0x85, 0x98, 0x7c, 0x3d,
    0xff, 0x7a, 0x07, 0x3e, 0xd7, 0xe6, 0x3a, 0xbe, 0xe8, 0x45, 0x4c, 0x3e,
    0x19, 0x2f, 0xbc, 0x3d, 0x2a, 0x84, 0x95, 0x3e, 0xae, 0xa4, 0xd3, 0xbd,
    0xe5, 0xac, 0x6c, 0x3c, 0x25, 0xa9, 0xbb, 0x3e, 0xfc, 0x21, 0x0d, 0xbe,
    0x1e, 0x06, 0x09, 0xbe, 0x34, 0x28, 0x61, 0x3e, 0x87, 0x31, 0x31, 0xbe,
    0x36, 0x67, 0xa2, 0xbe, 0x1a, 0x73, 0x56, 0x3e, 0xeb, 0x84, 0x9b, 0xbe,
    0xb4, 0x27, 0x00, 0x3e, 0x46, 0x1b, 0xe9, 0x3d, 0x84, 0x68, 0x92, 0xbe,
    0x47, 0x75, 0x28, 0x3e, 0x49, 0x13, 0x95, 0x3d, 0x37, 0x5b, 0x38, 0x3e,
    0x63, 0x10, 0xbe, 0xbe, 0x8c, 0xc1, 0x84, 0xbe, 0x54, 0xae, 0xa8, 0xbe,
    0xd7, 0x36, 0x54, 0xbe, 0x56, 0xdf, 0x44, 0xbe, 0xc9, 0xb9, 0x8d, 0x3e,
    0xe6, 0xe4, 0x3d, 0xbd, 0xa2, 0xae, 0xd5, 0xbe, 0x49, 0x1c, 0x27, 0x3e,
    0x38, 0x66, 0xcc, 0xbe, 0x17, 0xca, 0x75, 0x3d, 0xb4, 0x19, 0x9c, 0x3c,
    0x5f, 0xf8, 0x65, 0xbe, 0x6c, 0xae, 0x78, 0x3e, 0x39, 0x22, 0x96, 0x3c,
    0xae, 0xfd, 0x71, 0x3e, 0xda, 0xfc, 0x96, 0xbd, 0xf9, 0x04, 0x23, 0xbe,
    0x28, 0xae, 0xe3, 0x3e, 0x2b, 0x4f, 0xac, 0xbd, 0xd9, 0x56, 0xc5, 0xbd,
    0xcf, 0xf8, 0x9b, 0x3e, 0xca, 0x4d, 0xd7, 0xbd, 0x71, 0x7c, 0xaa, 0xbe,
    0xed, 0x86, 0x77, 0x3e, 0xe1, 0x92, 0xfb, 0xbd, 0x4c, 0xfd, 0x98, 0x3d,
    0x5f, 0xc3, 0x3c, 0x3d, 0x12, 0xe1, 0xff, 0xff, 0x10, 0x00, 0x00, 0x00,
    0x08, 0x00, 0x00, 0x00, 0x14, 0x00, 0x00, 0x00, 0x30, 0x00, 0x00, 0x00,
    0x02, 0x00, 0x00, 0x00, 0x04, 0x00, 0x00, 0x00, 0x10, 0x00, 0x00, 0x00,
    0x19, 0x00, 0x00, 0x00, 0x73, 0x65, 0x71, 0x75, 0x65, 0x6e, 0x74, 0x69,
    0x61, 0x6c, 0x2f, 0x64, 0x65, 0x6e, 0x73, 0x65, 0x5f, 0x31, 0x2f, 0x4d,
    0x61, 0x74, 0x4d, 0x75, 0x6c, 0x00, 0x00, 0x00, 0x80, 0xe0, 0xff, 0xff,
    0x8a, 0xe1, 0xff, 0xff, 0x04, 0x00, 0x00, 0x00, 0x00, 0x1c, 0x00, 0x00,
    0x25, 0x40, 0x82, 0xbe, 0x4c, 0x89, 0x7c, 0xbd, 0x4b, 0x4c, 0x98, 0xbd,
    0xce, 0x71, 0x2b, 0xbe, 0xc5, 0x58, 0xf8, 0x3d, 0xba, 0xd0, 0x83, 0xbd,
    0xe5, 0x0b, 0x17, 0x3e, 0x73, 0x22, 0xd1, 0x3c, 0x04, 0xc3, 0x2a, 0xbe,
    0x25, 0x9a, 0x57, 0x3c, 0x42, 0x30, 0xcc, 0xbe, 0xd5, 0xfa, 0x90, 0xbe,
    0x0e, 0xbc, 0x29, 0xbe, 0x3d, 0xf0, 0xa0, 0x3e, 0x78, 0x25, 0x98, 0x3e,
    0xb0, 0xb1, 0x38, 0xbe, 0xd8, 0x17, 0xb5, 0xbd, 0x70, 0x8b, 0x94, 0x3c,
    0xe5, 0xe1, 0xb5, 0x3d, 0x24, 0x23, 0xd5, 0x3d, 0xfb, 0xa4, 0xbe, 0x3e,
    0x8d, 0x12, 0x39, 0x3e, 0xb7, 0x3d, 0xce, 0x3e, 0x4a, 0xfc, 0x03, 0x3d,
    0xdc, 0xda, 0x80, 0xbe, 0x4f, 0xba, 0xec, 0x3e, 0x01, 0x94, 0x74, 0xbe,
    0x29, 0x54, 0x9d, 0xbd, 0x40, 0x10, 0xd9, 0xbd, 0x57, 0x99, 0x33, 0x3e,
    0xae, 0xa6, 0xca, 0x3d, 0x3c, 0x83, 0x1f, 0x3d, 0x1d, 0x75, 0x69, 0x3e,
    0x91, 0x95, 0x84, 0xbd, 0xa2, 0x22, 0xb2, 0x3d, 0xb4, 0xe1, 0x51, 0x3d,
    0xb5, 0x52, 0xdb, 0x3e, 0x30, 0x9d, 0x9c, 0x3e, 0x55, 0x3c, 0x9a, 0x3e,
    0xe9, 0xef, 0xa7, 0xbd, 0x46, 0xa0, 0x4c, 0xbe, 0x2f, 0xfb, 0x3b, 0x3f,
    0x26, 0xf6, 0x85, 0xbe, 0x38, 0xa7, 0x50, 0xbe, 0xe4, 0x06, 0x72, 0xbe,
    0x33, 0x30, 0xd8, 0x3e, 0xbe, 0xe3, 0x85, 0xbd, 0x19, 0x73, 0x14, 0x3e,
    0xcf, 0x2c, 0x0e, 0x3e, 0xf0, 0x36, 0x13, 0xbe, 0x84, 0x7a, 0xda, 0x3c,
    0xbb, 0x09, 0x54, 0xbe, 0x3a, 0x66, 0xd1, 0x3e, 0xc3, 0x88, 0x40, 0x3e,
    0x26, 0xb3, 0x3f, 0x3e, 0x7e, 0x3e, 0x1d, 0x3e, 0x81, 0x22, 0xde, 0x3d,
    0x07, 0x94, 0x19, 0x3f, 0xc1, 0xa7, 0xac, 0xbe, 0xc2, 0xa0, 0x5b, 0xbe,
    0x9c, 0x3b, 0x20, 0x3e, 0xa7, 0x90, 0xeb, 0x3e, 0xd3, 0x76, 0x24, 0xbc,
    0x2b, 0xc6, 0x02, 0xbe, 0xfc, 0x7f, 0xb7, 0xbc, 0x6c, 0x72, 0xc1, 0xbd,
    0xe4, 0x95, 0x5c, 0x3d, 0xa4, 0x84, 0xaa, 0x3d, 0xb3, 0xde, 0x7b, 0x3e,
    0x7d, 0x86, 0x69, 0xbe, 0x4c, 0xea, 0x8a, 0x3e, 0xa2, 0x23, 0x22, 0xbd,
    0x07, 0xab, 0x08, 0xbd, 0xee, 0xdb, 0x10, 0x3e, 0x73, 0xee, 0x51, 0xbe,
    0xd4, 0xc2, 0xd6, 0xbd, 0xf0, 0x83, 0xf4, 0x3d, 0x18, 0x34, 0xd8, 0x3e,
    0x85, 0xd1, 0xa5, 0x3e, 0x4a, 0xb5, 0xb9, 0x3c, 0x8c, 0x2c, 0x85, 0xbe,
    0xd3, 0x25, 0xb7, 0x3c, 0x59, 0xb2, 0x31, 0xbd, 0x4e, 0xd9, 0x90, 0xbd,
    0xa0, 0xc0, 0x8d, 0x3e, 0x5a, 0xbe, 0x44, 0xbd, 0xcb, 0x13, 0x6a, 0x3e,
    0xd5, 0x4f, 0xad, 0x3d, 0x1f, 0x3d, 0xb6, 0xbe, 0xea, 0x94, 0x23, 0x3f,
    0xf4, 0x70, 0x90, 0xbe, 0x5f, 0x87, 0x96, 0xbd, 0x2d, 0x0a, 0x61, 0xbd,
    0xa2, 0xf0, 0x09, 0x3f, 0xb1, 0xe5, 0x9f, 0x3e, 0x50, 0x1b, 0x8d, 0xbd,
    0xee, 0xda, 0x3f, 0xbe, 0x37, 0xe9, 0x1a, 0xbe, 0xb3, 0xc2, 0x24, 0x3d,
    0xb4, 0xc5, 0x3c, 0xbe, 0x69, 0x00, 0xde, 0x3d, 0xfa, 0x8e, 0x85, 0x3c,
    0x14, 0x35, 0x8e, 0xbc, 0x6c, 0x7b, 0xe6, 0xbd, 0x87, 0xc1, 0x7c, 0xbe,
    0xac, 0xe8, 0x82, 0x3f, 0x58, 0x98, 0x17, 0xbd, 0x12, 0xfc, 0xe5, 0xbc,
    0xd5, 0x4b, 0x3a, 0xbe, 0x45, 0x77, 0xcd, 0xbd, 0xa4, 0x52, 0x89, 0x3d,
    0xc0, 0x19, 0xf7, 0xbd, 0xd1, 0x76, 0xd6, 0xbe, 0x71, 0xa6, 0x18, 0x3e,
    0xce, 0xb2, 0x44, 0xbf, 0x17, 0x3c, 0x57, 0xbe, 0x50, 0xa0, 0x38, 0xbe,
    0xa3, 0xcc, 0x4e, 0xbe, 0x94, 0xe9, 0x49, 0x3e, 0x45, 0x1a, 0x3a, 0x3e,
    0x0f, 0x24, 0x58, 0xbc, 0x62, 0x98, 0x14, 0x3e, 0x1f, 0x85, 0x23, 0xbd,
    0x3a, 0x5b, 0x04, 0xbe, 0x9e, 0xa0, 0x52, 0xbd, 0xad, 0xa9, 0x5c, 0x3e,
    0x81, 0x29, 0x02, 0xbd, 0x1b, 0x35, 0x25, 0x3e, 0x87, 0x39, 0x93, 0x3e,
    0x14, 0x79, 0x1b, 0x3d, 0xd2, 0xb7, 0xd5, 0xbe, 0x35, 0x5f, 0xd0, 0x3e,
    0xdf, 0xa3, 0x8a, 0x3d, 0x2c, 0xf4, 0xa5, 0xbd, 0x00, 0xbb, 0xb4, 0x3e,
    0xa8, 0xe7, 0x11, 0xbe, 0x46, 0x8a, 0x57, 0xbe, 0xa7, 0xdf, 0xd4, 0xba,
    0x94, 0x92, 0xb8, 0x3d, 0xda, 0xeb, 0x40, 0xbc, 0x8f, 0x39, 0x70, 0x3e,
    0x10, 0x62, 0x39, 0x3e, 0x8b, 0x0b, 0x91, 0xbe, 0xa3, 0xc6, 0x9e, 0x3d,
    0x37, 0x85, 0xf4, 0x3e, 0xfa, 0x61, 0x33, 0x3d, 0x21, 0xc0, 0xda, 0xbe,
    0xcd, 0x03, 0x8b, 0x3d, 0x8f, 0x87, 0xbe, 0x3d, 0x45, 0x21, 0x1f, 0x3d,
    0xab, 0xd0, 0x05, 0x3e, 0xe1, 0xa2, 0x8b, 0xbd, 0x08, 0x18, 0x03, 0xbc,
    0x74, 0x83, 0x98, 0x3d, 0xb1, 0xc4, 0xd2, 0x3d, 0x7e, 0x74, 0x84, 0x3d,
    0x88, 0x93, 0x96, 0xbd, 0xd8, 0x5c, 0xb2, 0x3d, 0xac, 0x45, 0x25, 0xbd,
    0x56, 0x95, 0x47, 0x3e, 0x83, 0x91, 0x9a, 0x3e, 0x1e, 0x6c, 0x24, 0x3d,
    0xb9, 0xd4, 0xc9, 0xbe, 0xf7, 0x06, 0x77, 0x3d, 0x25, 0x98, 0x93, 0xbd,
    0xd5, 0xad, 0x12, 0x3e, 0xba, 0xf5, 0x27, 0x3e, 0xe5, 0x0e, 0xfe, 0xbc,
    0x74, 0x68, 0x5f, 0xbc, 0xbe, 0xaa, 0xd1, 0x3d, 0x1b, 0xea, 0xa2, 0x3d,
    0xf2, 0xa1, 0x49, 0x3e, 0xac, 0x89, 0x30, 0x3d, 0x21, 0x30, 0x89, 0x3e,
    0x56, 0x13, 0x6b, 0xbc, 0x20, 0xce, 0x23, 0x3e, 0xe7, 0x50, 0xb8, 0x3e,
    0x0b, 0x74, 0x8b, 0x3c, 0xa9, 0xec, 0xd2, 0xbe, 0x9b, 0x83, 0x78, 0x38,
    0x52, 0xa3, 0x48, 0xbe, 0x8f, 0x09, 0xb8, 0x3e, 0x7c, 0x75, 0x6e, 0x3e,
    0xdf, 0x46, 0xb1, 0x3b, 0xb7, 0x47, 0xbd, 0xbd, 0x6e, 0xfb, 0x61, 0x3e,
    0x7f, 0x0a, 0xa1, 0x3d, 0xe2, 0x82, 0x8d, 0xbd, 0x87, 0x4f, 0x92, 0x3d,
    0x64, 0x5b, 0x3a, 0x3e, 0x11, 0x4c, 0x21, 0xbe, 0x4d, 0x93, 0x33, 0x3f,
    0xa8, 0xd5, 0xb8, 0x3e, 0x2a, 0x76, 0x46, 0x3a, 0x40, 0x7f, 0x70, 0xbf,
    0xba, 0xa0, 0xc1, 0xbe, 0x1b, 0x1c, 0xbe, 0xbd, 0x0a, 0x3b, 0xb3, 0xbc,
    0x5b, 0xb3, 0x7f, 0x3d, 0x59, 0xc3, 0x9e, 0xbd, 0xd8, 0x74, 0xfd, 0xbe,
    0x0e, 0x6a, 0x9c, 0x3e, 0x3a, 0x49, 0x06, 0x3d, 0x42, 0xca, 0x30, 0xbe,
    0xd3, 0xcf, 0x0e, 0xbc, 0xa7, 0x3b, 0xbb, 0x3e, 0x58, 0x61, 0x70, 0xbe,
    0xe5, 0xa4, 0x46, 0x3e, 0x39, 0xfd, 0xb5, 0xbd, 0xa9, 0x82, 0x5a, 0x3d,
    0xfb, 0x6c, 0x25, 0xbf, 0x54, 0xbb, 0xc8, 0xbe, 0xcc, 0xc4, 0x53, 0xbe,
    0x9b, 0x5a, 0x1e, 0xbe, 0x45, 0xb5, 0xab, 0x3e, 0xbc, 0x92, 0x00, 0xbe,
    0x31, 0x7b, 0x65, 0xbd, 0x0f, 0x94, 0x89, 0x3e, 0xd0, 0xcb, 0x0e, 0x3c,
    0xc9, 0x24, 0x93, 0xbe, 0xe0, 0xdf, 0xde, 0x3d, 0x37, 0x2e, 0x27, 0x3e,
    0x1d, 0x72, 0x82, 0xbe, 0x5c, 0xde, 0xee, 0x3d, 0x05, 0xae, 0xb2, 0x3e,
    0x03, 0x39, 0x0d, 0xbd, 0x2f, 0x0e, 0x70, 0x3d, 0x7c, 0x72, 0xef, 0xbc,
    0xd9, 0x67, 0xea, 0xbc, 0xc5, 0x48, 0xfa, 0x3d, 0x08, 0xca, 0x41, 0xbe,
    0x7d, 0xb5, 0x51, 0xbd, 0xbf, 0x59, 0xeb, 0xba, 0x0c, 0x1d, 0xe9, 0xbd,
    0x92, 0xd8, 0xf9, 0x3c, 0x9e, 0x5e, 0x0c, 0x3e, 0x6f, 0xa5, 0x14, 0x3e,
    0x85, 0x7a, 0xba, 0x3c, 0xf0, 0x43, 0x31, 0xbe, 0xb1, 0x09, 0x24, 0x3b,
    0x90, 0x0d, 0xbc, 0xbd, 0x45, 0x22, 0x8a, 0x3c, 0xfa, 0xad, 0x5e, 0xbd,
    0x8e, 0x49, 0x3f, 0xbe, 0x3f, 0x63, 0x19, 0xbd, 0x9a, 0xa2, 0x39, 0xbe,
    0x22, 0x10, 0xc5, 0xbd, 0x1a, 0x02, 0xbb, 0xbd, 0xbd, 0x69, 0x21, 0x3e,
    0xc9, 0xe4, 0x29, 0xbe, 0x04, 0xf9, 0x09, 0x3c, 0xfc, 0x3d, 0x86, 0xbe,
    0xd2, 0x29, 0x0d, 0x3e, 0xd1, 0x0b, 0x2b, 0x3e, 0x9b, 0x66, 0xe2, 0xbc,
    0x3c, 0x5c, 0xd2, 0xbd, 0xd7, 0x6c, 0xff, 0xbc, 0xa4, 0xfc, 0x0b, 0x3c,
    0xf7, 0x9f, 0x03, 0x3d, 0x0f, 0x75, 0xe9, 0xbc, 0x69, 0x2e, 0x1b, 0xbe,
    0xf6, 0xd3, 0xf2, 0xbe, 0xe1, 0xc4, 0x05, 0xbe, 0x68, 0x2c, 0x09, 0xbd,
    0x84, 0xe6, 0x8c, 0x3e, 0x68, 0x25, 0x29, 0xbd, 0x9d, 0xe1, 0x83, 0xbd,
    0xc5, 0x53, 0x02, 0xbf, 0xb1, 0xe8, 0x3c, 0x3e, 0xb7, 0xa2, 0x30, 0x3e,
    0x11, 0xba, 0x50, 0x3d, 0xbe, 0xc5, 0xcb, 0xbd, 0x70, 0x1b, 0xdc, 0xbd,
    0x22, 0xa4, 0x8f, 0xbb, 0x54, 0x40, 0x31, 0xbe, 0x2a, 0x06, 0x0e, 0x3e,
    0x47, 0x0c, 0x03, 0xbf, 0x92, 0x7c, 0xd4, 0xbe, 0x3c, 0xc8, 0x46, 0x3c,
    0x97, 0x99, 0x86, 0xbd, 0x8c, 0x2a, 0xd5, 0x3d, 0xd5, 0xfb, 0xaa, 0x3d,
    0x7f, 0x6f, 0x12, 0xbd, 0xac, 0x94, 0xdb, 0xbe, 0xb1, 0x5c, 0x8b, 0x3d,
    0x65, 0xa8, 0x34, 0xbd, 0x2b, 0x1f, 0x12, 0x3b, 0x83, 0x14, 0x59, 0xbe,
    0x71, 0x8f, 0x17, 0x3e, 0x43, 0x68, 0xa1, 0x3c, 0xcf, 0x9a, 0xd8, 0xbb,
    0x17, 0xf3, 0xd5, 0xbc, 0x8b, 0x76, 0xb0, 0xbc, 0x82, 0x08, 0x03, 0x3d,
    0xc6, 0x9f, 0x67, 0x3c, 0x33, 0x23, 0x36, 0xbd, 0xa7, 0x4a, 0x60, 0x3e,
    0x34, 0x19, 0xc6, 0xbd, 0x16, 0xa0, 0x5f, 0x3d, 0xe8, 0xea, 0x8d, 0xbe,
    0x30, 0x08, 0x73, 0x3e, 0xc4, 0x6b, 0xca, 0x3d, 0xa9, 0xc6, 0xc6, 0xbe,
    0x31, 0x78, 0x37, 0xbd, 0xc8, 0xbd, 0x9a, 0x3e, 0x37, 0x35, 0x3b, 0xbc,
    0x3c, 0x1e, 0x08, 0xbd, 0xad, 0xf1, 0xe1, 0x3c, 0x81, 0x98, 0x6b, 0xbd,
    0xf9, 0xa6, 0xd0, 0x3d, 0x12, 0xe8, 0x42, 0x3e, 0xf5, 0x63, 0x2e, 0x3c,
    0x94, 0xaf, 0x0e, 0x3e, 0x80, 0x6e, 0xc5, 0xbc, 0x60, 0x9f, 0x0b, 0x3d,
    0x74, 0xc5, 0xa9, 0xbd, 0xd8, 0xfe, 0xf6, 0x3e, 0x78, 0x28, 0xa0, 0x3d,
    0xb4, 0x88, 0x8f, 0xbe, 0xda, 0xc2, 0x65, 0xbd, 0x24, 0x26, 0x51, 0x3e,
    0xe7, 0xb4, 0xb2, 0xbd, 0x80, 0x7f, 0x81, 0x3d, 0xe3, 0xfc, 0x13, 0x3d,
    0xcd, 0x4d, 0xad, 0xbc, 0x2c, 0x7e, 0x23, 0xbc, 0x31, 0x5f, 0x44, 0x3d,
    0xce, 0x58, 0x18, 0x3e, 0xff, 0x1c, 0xe9, 0x3d, 0x04, 0xde, 0xc0, 0xbc,
    0xab, 0x8c, 0xd9, 0x3b, 0x94, 0xdf, 0x96, 0x3d, 0xc1, 0xf2, 0x90, 0x3e,
    0x99, 0x29, 0x5c, 0xbe, 0x59, 0x07, 0x46, 0xbd, 0x65, 0x76, 0x1c, 0xbd,
    0x83, 0x48, 0x8d, 0x3e, 0x33, 0x50, 0x50, 0xbb, 0x30, 0x22, 0xe1, 0x3c,
    0xf8, 0x26, 0xc6, 0xbd, 0xbb, 0x3d, 0xf1, 0x3d, 0x68, 0x1e, 0xff, 0x3d,
    0x02, 0xfc, 0xa4, 0x3e, 0x21, 0x8e, 0x2c, 0xbc, 0x5e, 0xb0, 0xb8, 0xbc,
    0xbf, 0x94, 0x97, 0xbd, 0xb4, 0x20, 0x19, 0xbe, 0xca, 0x12, 0x8c, 0x3d,
    0x54, 0x2d, 0x92, 0x3e, 0x52, 0xae, 0x87, 0x3e, 0x90, 0xad, 0x22, 0x3e,
    0xc9, 0x4e, 0x2b, 0x3e, 0xf3, 0x5f, 0x96, 0x3d, 0xb1, 0x6e, 0x35, 0xbc,
    0x79, 0x49, 0xfc, 0x3c, 0x64, 0x0d, 0x63, 0x3e, 0xf1, 0xcc, 0x26, 0x3e,
    0x76, 0x77, 0x0f, 0xbd, 0xb8, 0x4c, 0xf5, 0x3d, 0x5d, 0xbb, 0x28, 0x3e,
    0xe4, 0x7a, 0x29, 0xbe, 0x9c, 0x73, 0xf8, 0xbc, 0x41, 0x2b, 0x39, 0xbd,
    0x60, 0xd9, 0x03, 0xbe, 0xba, 0x7c, 0x5b, 0x3d, 0x6d, 0xc5, 0xe0, 0x3d,
    0x35, 0x68, 0xf3, 0x3d, 0xe1, 0x27, 0xa0, 0xbe, 0xb6, 0x3e, 0xad, 0xb7,
    0x6d, 0xc3, 0x28, 0x3c, 0xe4, 0x78, 0x2c, 0xbd, 0x08, 0x03, 0xb9, 0x3c,
    0x95, 0x16, 0x9b, 0x3d, 0x13, 0x78, 0xaf, 0x3c, 0x85, 0x92, 0x73, 0x3e,
    0x36, 0x6b, 0x04, 0x3e, 0x88, 0x71, 0x3e, 0xbe, 0xd6, 0xa4, 0x91, 0x3d,
    0x72, 0xf3, 0x0e, 0xbd, 0x0c, 0xe7, 0xd2, 0xbe, 0x24, 0xd9, 0x7b, 0xbe,
    0x65, 0xe0, 0x8a, 0x3d, 0x3a, 0x12, 0x52, 0x3d, 0x39, 0xb5, 0xa1, 0xbe,
    0x53, 0xe5, 0x65, 0xbe, 0xa2, 0x8d, 0x19, 0x3d, 0x11, 0x96, 0xb9, 0x3c,
    0x20, 0xba, 0xd9, 0x3c, 0x8d, 0x6c, 0xde, 0x3d, 0x25, 0xf0, 0x8c, 0x3d,
    0xe5, 0x43, 0xe1, 0xbd, 0xd2, 0x3d, 0xf4, 0x3c, 0xd1, 0x6a, 0xb1, 0xbb,
    0x8d, 0x4d, 0x44, 0x3e, 0x39, 0x26, 0x1b, 0xbd, 0xc3, 0x34, 0x21, 0xbf,
    0x47, 0x31, 0xe0, 0xbd, 0x8c, 0x80, 0x02, 0x3e, 0xe8, 0x32, 0xf1, 0x3c,
    0xa7, 0x67, 0x0b, 0xbf, 0xab, 0x32, 0x77, 0x3e, 0x2a, 0xb3, 0x0b, 0x3d,
    0x24, 0x42, 0xb9, 0x3c, 0x62, 0x81, 0xdf, 0xbd, 0xbf, 0x16, 0x03, 0x3e,
    0xf0, 0x69, 0xd4, 0x3d, 0xdd, 0x49, 0xcc, 0x3d, 0x79, 0x41, 0x05, 0x3e,
    0x00, 0x85, 0x14, 0xbe, 0x11, 0xb3, 0xf6, 0x3d, 0x19, 0x8c, 0xc7, 0xbd,
    0x3d, 0xf3, 0xbb, 0xbe, 0xf6, 0x6b, 0xc8, 0xbd, 0xa8, 0x93, 0x68, 0x3d,
    0xfd, 0x78, 0x87, 0x3d, 0x04, 0x42, 0x36, 0xbe, 0x06, 0x79, 0xb0, 0x3e,
    0xa4, 0x87, 0x16, 0x3d, 0x7c, 0x5a, 0x97, 0x3c, 0x51, 0x3d, 0xf8, 0xbd,
    0xf2, 0x3f, 0x49, 0x3e, 0x7c, 0x6b, 0xb8, 0x3d, 0x59, 0x98, 0x40, 0x3e,
    0x92, 0x08, 0x3c, 0x3d, 0x50, 0x0d, 0xd1, 0xbd, 0x99, 0x7d, 0xcb, 0xba,
    0xc5, 0xb2, 0x69, 0xbd, 0x98, 0xf7, 0x5f, 0x3e, 0x5b, 0x6e, 0x28, 0x3e,
    0xd3, 0x4a, 0x15, 0xbe, 0x50, 0x8f, 0xc5, 0x3d, 0x30, 0xf5, 0x09, 0x3e,
    0x42, 0x07, 0xe7, 0x3c, 0x98, 0x1e, 0x13, 0x3d, 0x65, 0xeb, 0x47, 0x3c,
    0x0b, 0x43, 0x08, 0xbd, 0x50, 0xbb, 0x20, 0x3e, 0x2f, 0xf3, 0xaa, 0x3d,
    0x3a, 0xd7, 0x7b, 0x3d, 0x27, 0x4a, 0x31, 0xbc, 0x6f, 0xc4, 0x79, 0xbd,
    0x84, 0xeb, 0x3d, 0x3d, 0xad, 0x4f, 0xa9, 0xbc, 0x73, 0xea, 0xe1, 0x3c,
    0x2a, 0x7b, 0x89, 0x3b, 0x47, 0x47, 0x12, 0x3c, 0x81, 0x27, 0x97, 0x3d,
    0xce, 0x61, 0x11, 0xbc, 0x6c, 0x95, 0xbb, 0xbc, 0xb7, 0x6e, 0xf3, 0x3d,
    0xfb, 0xc0, 0x5c, 0xbe, 0x01, 0x17, 0x7e, 0xbd, 0xdd, 0x1a, 0xd5, 0xbc,
    0x69, 0xf2, 0xfd, 0xbc, 0xe7, 0x82, 0x4b, 0x3e, 0x1d, 0x46, 0xca, 0x3d,
    0x46, 0xa2, 0x09, 0xbe, 0xe3, 0x9c, 0xfc, 0x3d, 0x91, 0x92, 0x00, 0xbe,
    0x11, 0xb8, 0xc8, 0xbd, 0x61, 0x1e, 0xb4, 0x3c, 0x34, 0x77, 0xcc, 0x3d,
    0x46, 0x2f, 0x08, 0xbd, 0x0f, 0xe2, 0x0b, 0x3e, 0x8e, 0x53, 0x03, 0x3e,
    0x69, 0x3d, 0x6c, 0x3c, 0x75, 0xd8, 0x77, 0xbe, 0x5c, 0xe6, 0x70, 0xbd,
    0x0e, 0xb4, 0x15, 0xbe, 0x53, 0x7d, 0x72, 0xbe, 0x04, 0x70, 0xa6, 0x3e,
    0x70, 0x18, 0xc4, 0x3b, 0x66, 0xfc, 0xea, 0xbd, 0xc7, 0xbb, 0xd2, 0x3d,
    0xdc, 0x25, 0x85, 0xbe, 0xe1, 0xf1, 0x06, 0xbd, 0xe8, 0xf2, 0x5e, 0x3e,
    0xe2, 0x93, 0x7e, 0x3e, 0xf8, 0x9d, 0xd7, 0xbb, 0x04, 0x3d, 0x70, 0x3d,
    0x62, 0x49, 0xea, 0x3d, 0xcf, 0x04, 0xe3, 0xbd, 0xa3, 0x2f, 0x76, 0xbd,
    0x2f, 0x0f, 0xc7, 0x3d, 0x38, 0xef, 0x02, 0xbe, 0x15, 0xfd, 0xa3, 0xbe,
    0x87, 0xa0, 0x8b, 0x3e, 0x4f, 0x05, 0xa4, 0xbd, 0x85, 0x18, 0x09, 0xbd,
    0x50, 0x2a, 0x68, 0x3d, 0xd8, 0xdb, 0xfc, 0xbd, 0x88, 0x78, 0x97, 0x3e,
    0x50, 0x03, 0xa4, 0x3d, 0x21, 0x16, 0x91, 0x3e, 0x6d, 0x45, 0x43, 0xbd,
    0x65, 0x4c, 0x4a, 0x3d, 0x8c, 0x50, 0x18, 0xbc, 0x9e, 0x9b, 0xa1, 0xbe,
    0xf4, 0x9c, 0x84, 0xbe, 0x1a, 0xfc, 0x15, 0x3d, 0xa6, 0x2c, 0x29, 0xbd,
    0x5c, 0x0e, 0x33, 0x3e, 0xfa, 0x69, 0xa3, 0x3c, 0xe1, 0xe9, 0xad, 0x3c,
    0x0a, 0xfc, 0x0e, 0xbe, 0x90, 0x9e, 0x30, 0xbe, 0x72, 0xa3, 0x97, 0xbd,
    0x1b, 0x2d, 0xb2, 0x3c, 0xe5, 0xe6, 0xbb, 0x3e, 0x18, 0x27, 0xf0, 0x3e,
    0xcb, 0xfc, 0x48, 0x3e, 0x0b, 0x91, 0x89, 0x3e, 0xf8, 0x6e, 0x91, 0x3e,
    0x75, 0x52, 0xda, 0xbc, 0x4a, 0x85, 0x98, 0xbe, 0x7b, 0x72, 0x19, 0xbd,
    0x70, 0xb3, 0xe4, 0x3b, 0x5f, 0xa2, 0xe4, 0x3c, 0xd5, 0xbf, 0x95, 0x3d,
    0xba, 0xc9, 0x19, 0xbe, 0x22, 0x43, 0xa4, 0x3c, 0xc6, 0x14, 0xb2, 0xbc,
    0x85, 0xcb, 0x08, 0xbe, 0x02, 0xe5, 0xfa, 0xbc, 0xb2, 0xe3, 0x71, 0x3e,
    0x40, 0x65, 0xa1, 0xbd, 0x86, 0x58, 0x28, 0xbe, 0xde, 0x52, 0xa9, 0x3e,
    0x58, 0xc2, 0xd5, 0xbd, 0x2a, 0xd4, 0x13, 0x3e, 0xa6, 0x2d, 0xcb, 0xbe,
    0xbd, 0xb3, 0x3d, 0xbc, 0xda, 0x4b, 0xf9, 0xbd, 0x97, 0xb6, 0x2f, 0x3d,
    0xc9, 0x82, 0xbc, 0x3d, 0xe6, 0x26, 0xd0, 0xbd, 0xca, 0x14, 0x0c, 0xbe,
    0x90, 0x1e, 0x74, 0x3e, 0x44, 0x55, 0xe3, 0x3b, 0x59, 0x1f, 0x48, 0xbe,
    0xd0, 0x1b, 0x88, 0x3b, 0x16, 0x10, 0x2e, 0x3e, 0xaf, 0xb3, 0xf8, 0x3c,
    0x01, 0x7e, 0x13, 0x3d, 0xe2, 0xa4, 0x70, 0xbb, 0x82, 0xf0, 0x83, 0x3d,
    0xd0, 0x69, 0x2a, 0xbe, 0xf2, 0x79, 0x16, 0x3d, 0xce, 0xa4, 0x46, 0xbe,
    0xb1, 0xc4, 0xda, 0xbd, 0xae, 0x55, 0x9d, 0x3e, 0x2f, 0x56, 0xbe, 0xbd,
    0x3a, 0x0e, 0xdb, 0xbd, 0x42, 0x37, 0x2d, 0x3c, 0x9c, 0xd9, 0x30, 0xbe,
    0x29, 0xd3, 0x01, 0x3d, 0x47, 0x77, 0x2b, 0xbe, 0x1b, 0x22, 0x20, 0x3d,
    0x3c, 0x57, 0x96, 0x3c, 0x26, 0x48, 0x57, 0xbd, 0x31, 0x00, 0xdc, 0xbd,
    0xd9, 0x42, 0x41, 0xbe, 0x48, 0x82, 0x9a, 0xbe, 0x0a, 0xa0, 0x1e, 0xbe,
    0x3c, 0xe4, 0x5c, 0x3c, 0x4e, 0xb0, 0xe3, 0xbd, 0xfa, 0x8e, 0x37, 0x3d,
    0x96, 0xd8, 0x1f, 0xbe, 0xfd, 0x61, 0x70, 0xbe, 0x7c, 0xa7, 0x93, 0x3d,
    0x51, 0x3f, 0xc4, 0xbd, 0x5b, 0x1a, 0x48, 0x3d, 0xa6, 0x90, 0x80, 0xbd,
    0xf0, 0x7d, 0x82, 0xbd, 0xb7, 0xf8, 0x46, 0xbd, 0xef, 0x0d, 0xc7, 0xbc,
    0x0e, 0xff, 0xd3, 0x3d, 0x02, 0x36, 0x69, 0xbe, 0x37, 0x43, 0xde, 0xbc,
    0xc0, 0xe0, 0x06, 0x3d, 0x41, 0x07, 0x11, 0xbe, 0x76, 0x14, 0x67, 0x3d,
    0x5c, 0x37, 0xfc, 0x3d, 0x6c, 0xc7, 0xb5, 0xbd, 0x69, 0xcd, 0x6d, 0xbe,
    0x43, 0xb2, 0x56, 0xbc, 0x68, 0x44, 0xda, 0xbd, 0xed, 0xb6, 0x30, 0xbe,
    0x8d, 0x8f, 0xb4, 0x3d, 0x0a, 0xa0, 0x50, 0xbe, 0xb7, 0x7d, 0x39, 0xbd,
    0x6a, 0xb7, 0x94, 0xbd, 0x18, 0x58, 0xd3, 0x3c, 0xf3, 0xa3, 0xa3, 0xbd,
    0x85, 0xd4, 0xaf, 0xbd, 0x70, 0xd6, 0x63, 0x3d, 0xeb, 0x9f, 0x95, 0xbd,
    0x7d, 0xb2, 0xf4, 0xbd, 0x8f, 0x38, 0x06, 0xbe, 0xbf, 0x61, 0x12, 0xbe,
    0x04, 0x46, 0xb0, 0x3d, 0xad, 0x3d, 0x49, 0x3d, 0xd7, 0xdc, 0xa4, 0xbd,
    0x69, 0xdb, 0xac, 0x3d, 0xdd, 0xf6, 0x51, 0xbe, 0xb6, 0x55, 0x23, 0xbe,
    0x87, 0xd2, 0x32, 0xbe, 0x05, 0x7f, 0xf8, 0x3a, 0x02, 0x03, 0x0c, 0xbe,
    0x6a, 0xc7, 0x57, 0xbe, 0x01, 0xf0, 0xb0, 0xbd, 0xf1, 0x71, 0xce, 0xbd,
    0xab, 0xf9, 0x74, 0xbe, 0x55, 0x0d, 0xe1, 0x3d, 0x72, 0xe2, 0x84, 0x3d,
    0x03, 0xec, 0x34, 0xbe, 0x21, 0x5f, 0xd6, 0xbd, 0x9b, 0x00, 0x16, 0xbe,
    0x94, 0xed, 0x6f, 0xbe, 0x8b, 0x01, 0x2b, 0xbe, 0xfa, 0xdf, 0x09, 0x3e,
    0xce, 0x5e, 0xc0, 0xbd, 0xc8, 0x89, 0x74, 0x3c, 0xbd, 0x17, 0x70, 0x3d,
    0x80, 0x9d, 0x9f, 0xba, 0x92, 0xd5, 0xf3, 0xbd, 0x7f, 0x3c, 0x2f, 0xbe,
    0xfc, 0x25, 0x44, 0xbe, 0x11, 0xed, 0xbc, 0x3d, 0x48, 0xd4, 0x29, 0xbc,
    0xab, 0xf4, 0x3f, 0xbe, 0xb8, 0xc0, 0x6e, 0xbe, 0x4e, 0xd3, 0x0f, 0x3d,
    0x2f, 0x03, 0x42, 0xbe, 0x13, 0x92, 0xca, 0xbc, 0x3f, 0xc9, 0xef, 0x3d,
    0xe0, 0x25, 0x56, 0x3d, 0x6e, 0x87, 0x08, 0xbe, 0xab, 0xa2, 0x5a, 0xbe,
    0x96, 0xda, 0x44, 0xbd, 0x36, 0xf8, 0x15, 0x3d, 0x22, 0x27, 0x7a, 0xbe,
    0xa9, 0x67, 0x25, 0xbd, 0x44, 0xad, 0xad, 0xbd, 0x50, 0x1b, 0x86, 0xbd,
    0x38, 0x10, 0x38, 0xbe, 0x76, 0xf2, 0x54, 0x3d, 0x3f, 0x8b, 0x62, 0xbe,
    0x44, 0xdd, 0xa4, 0x3c, 0xef, 0xea, 0xf0, 0xbd, 0x9a, 0x0f, 0x0f, 0xbe,
    0x54, 0x3c, 0x11, 0x3e, 0x95, 0x20, 0x20, 0x3e, 0xdc, 0x13, 0x19, 0xbe,
    0xa5, 0xc6, 0x72, 0xbd, 0x66, 0xd4, 0x1f, 0xbe, 0x10, 0x5d, 0x73, 0xbd,
    0xec, 0x6c, 0x20, 0xbd, 0x0c, 0xf2, 0x88, 0xbe, 0x87, 0xec, 0xca, 0xbb,
    0x90, 0x99, 0x6e, 0xbe, 0x42, 0xc5, 0xed, 0xbd, 0x2c, 0x1c, 0x69, 0xbe,
    0xdc, 0x88, 0xad, 0xb9, 0xa1, 0xdc, 0x06, 0x3b, 0x88, 0x84, 0x3d, 0x3e,
    0xfd, 0xd0, 0x29, 0xbe, 0xe0, 0x6b, 0x85, 0xbe, 0x30, 0xd5, 0x82, 0x3d,
    0x9a, 0x15, 0xe1, 0xbd, 0x16, 0x46, 0x5c, 0xbe, 0x5c, 0x5d, 0x69, 0xbe,
    0xfc, 0x4d, 0x5e, 0xbe, 0x00, 0x83, 0x90, 0xbd, 0xe7, 0xe0, 0x89, 0xbd,
    0x6a, 0xe1, 0x10, 0xbe, 0x1c, 0x1b, 0x34, 0xbd, 0xfa, 0x10, 0x7b, 0xbd,
    0x16, 0xf7, 0x76, 0x3e, 0x9f, 0x64, 0x47, 0x3c, 0xf3, 0x6f, 0xc0, 0xbd,
    0xbd, 0xdd, 0xd9, 0x3d, 0xee, 0x29, 0x33, 0xbe, 0xbd, 0x97, 0x0d, 0xbe,
    0x92, 0xc5, 0xa4, 0xbb, 0xfa, 0xda, 0x43, 0x3e, 0x29, 0x18, 0x15, 0x3e,
    0xbd, 0x41, 0x52, 0x3e, 0xda, 0xfd, 0xc6, 0xbd, 0xbb, 0xd9, 0x9b, 0x3d,
    0xdb, 0xe4, 0x73, 0xbd, 0x68, 0x88, 0x9f, 0xb8, 0x90, 0xba, 0xd8, 0x3d,
    0x1c, 0x80, 0xfb, 0xbd, 0x9a, 0xb5, 0x0b, 0x3f, 0x2a, 0x9e, 0xab, 0x3d,
    0x26, 0x89, 0x71, 0xbe, 0xb2, 0x2d, 0xd3, 0x3c, 0x32, 0x81, 0x83, 0xbe,
    0x6a, 0x61, 0xeb, 0x3e, 0x61, 0x33, 0x90, 0xbe, 0xa3, 0x8b, 0x00, 0x3c,
    0xe3, 0x68, 0x5b, 0xbc, 0x50, 0xce, 0x7e, 0x3e, 0x35, 0x02, 0xf1, 0xbd,
    0x86, 0xc5, 0x0f, 0x3d, 0x20, 0xfb, 0x1a, 0xbd, 0x0a, 0x6c, 0x60, 0xbe,
    0x54, 0x8b, 0xd2, 0xba, 0x5f, 0xa1, 0xc6, 0x3c, 0xf0, 0x03, 0xe8, 0x3e,
    0xbb, 0xab, 0x94, 0x3d, 0x37, 0x85, 0x16, 0xbe, 0xe6, 0x6c, 0x11, 0x3e,
    0x99, 0x5d, 0x63, 0xbd, 0x12, 0xc8, 0x59, 0x3f, 0xf2, 0xf5, 0x08, 0xbd,
    0x7a, 0x32, 0xea, 0xbc, 0x10, 0x22, 0x11, 0x3d, 0x03, 0x34, 0x0f, 0x3f,
    0xd8, 0xcf, 0xcf, 0x3e, 0x28, 0xf9, 0x8c, 0xbd, 0xa7, 0x20, 0x05, 0x3d,
    0x86, 0xcd, 0x3c, 0x3d, 0x7e, 0x1d, 0x91, 0x3d, 0x16, 0xc6, 0x53, 0x3d,
    0x66, 0xd6, 0xd2, 0x3e, 0x3c, 0xda, 0xf2, 0x3c, 0xa5, 0xda, 0x6f, 0xbc,
    0xba, 0x95, 0x49, 0xbe, 0xa5, 0x94, 0x85, 0xbc, 0x48, 0xe0, 0x7b, 0x3f,
    0x01, 0x52, 0x43, 0xbe, 0x50, 0x3c, 0xf8, 0x3d, 0x54, 0x26, 0x82, 0xbd,
    0xa9, 0xdb, 0x14, 0x3f, 0x3c, 0xcf, 0xa0, 0xbd, 0xb5, 0xda, 0x16, 0xbc,
    0xf1, 0xe9, 0x88, 0x3c, 0x70, 0xff, 0xf2, 0xbd, 0x6e, 0x5b, 0x49, 0x3d,
    0x09, 0xfc, 0x97, 0xbd, 0xa0, 0x85, 0xce, 0xbb, 0x57, 0x1f, 0x9c, 0x3d,
    0x5f, 0x42, 0x4f, 0xbd, 0x8c, 0x75, 0x10, 0xbe, 0x5a, 0xdf, 0x12, 0xbe,
    0x27, 0x24, 0x6f, 0x3e, 0xa2, 0x5e, 0x33, 0xbe, 0x54, 0xca, 0x29, 0x3e,
    0x12, 0x22, 0x97, 0xbd, 0x60, 0x7b, 0x54, 0x3e, 0x1f, 0x4c, 0xc1, 0xbd,
    0x93, 0xfd, 0x1d, 0xbd, 0x83, 0x04, 0x7f, 0xbc, 0x80, 0x83, 0x1b, 0xbd,
    0x6a, 0x6d, 0x8d, 0xbd, 0x76, 0xbb, 0x4e, 0x3d, 0x3a, 0x61, 0x7c, 0x3e,
    0xf4, 0xab, 0x57, 0xbe, 0x17, 0xb7, 0x2f, 0xbe, 0x26, 0x93, 0x62, 0xbd,
    0x53, 0x0c, 0xa9, 0xbd, 0x77, 0x57, 0x5b, 0x3e, 0x09, 0xe5, 0xb0, 0xbe,
    0x73, 0x90, 0x30, 0x3e, 0x7d, 0xa5, 0xc1, 0xbc, 0x9e, 0x12, 0x28, 0x3e,
    0x37, 0x16, 0x88, 0xbe, 0xd7, 0x95, 0xe4, 0xbb, 0x43, 0x2b, 0x09, 0xbd,
    0x9f, 0x12, 0x39, 0xbe, 0xa6, 0x3a, 0x12, 0xbd, 0xd8, 0xb9, 0x13, 0xbe,
    0xe8, 0x6d, 0x23, 0x3e, 0x7c, 0x18, 0xf2, 0x3d, 0x54, 0x40, 0xf8, 0xbd,
    0x1e, 0xde, 0xe3, 0xbc, 0x36, 0xdb, 0x43, 0xbd, 0x54, 0x07, 0x87, 0x3a,
    0xdc, 0x38, 0xe5, 0xbd, 0x06, 0x2e, 0x6f, 0x3d, 0xf9, 0x40, 0x42, 0xbe,
    0x9d, 0x48, 0x23, 0x3e, 0x3e, 0x49, 0x93, 0xbe, 0x69, 0xb3, 0x2e, 0x3c,
    0xd3, 0x72, 0x41, 0xbe, 0x28, 0x2f, 0x50, 0xbc, 0xfc, 0x12, 0x1a, 0xbe,
    0x92, 0x0c, 0x01, 0xbe, 0xaa, 0xfd, 0x90, 0x3d, 0x00, 0xa0, 0x32, 0x3e,
    0xed, 0x96, 0x47, 0x3b, 0x61, 0x68, 0x19, 0x3e, 0x9b, 0xb9, 0x08, 0xbe,
    0xdb, 0xae, 0x03, 0xbf, 0xe7, 0xe0, 0xb9, 0x3d, 0xb2, 0x4f, 0x9c, 0x3e,
    0xf2, 0x7c, 0x25, 0xbe, 0x3a, 0x8d, 0x7c, 0x3e, 0x94, 0x2f, 0xe5, 0x3d,
    0x1a, 0x19, 0x2f, 0x3d, 0x23, 0x9b, 0xbb, 0xbe, 0x93, 0xf0, 0x88, 0x3e,
    0x3d, 0xa5, 0xaa, 0x3d, 0xf3, 0x52, 0x11, 0x3d, 0xd9, 0xaa, 0x0e, 0x3e,
    0xc5, 0xcc, 0x68, 0x3d, 0xbd, 0x1a, 0x04, 0xbf, 0xd4, 0x59, 0xd9, 0x3e,
    0xcf, 0xa0, 0x2b, 0xbe, 0x00, 0x4b, 0xa3, 0x3d, 0x24, 0xd4, 0xaf, 0xbc,
    0x5b, 0x2c, 0x5f, 0x3e, 0xae, 0x2f, 0xa4, 0xbe, 0xd4, 0x53, 0xa0, 0x3d,
    0xfc, 0xef, 0xf5, 0x3d, 0xbb, 0x6c, 0xeb, 0xbb, 0x21, 0xe0, 0x9b, 0xbe,
    0xa3, 0xe1, 0x4c, 0x3e, 0x14, 0x2f, 0x77, 0xbd, 0xa4, 0xe4, 0x22, 0xbc,
    0x65, 0x80, 0x37, 0x3e, 0x82, 0x43, 0x33, 0xbd, 0xf8, 0xcf, 0xe3, 0xbe,
    0xc8, 0x0f, 0xc2, 0x3e, 0x74, 0xc3, 0x6e, 0xbe, 0x59, 0xf4, 0x2c, 0xbe,
    0x36, 0x53, 0x6d, 0x3e, 0x86, 0x22, 0x49, 0x3e, 0x1a, 0x96, 0x86, 0xbd,
    0x4f, 0xc4, 0x94, 0x3d, 0x01, 0xf8, 0x92, 0x3e, 0x2d, 0x68, 0xb9, 0x3d,
    0xe4, 0xdf, 0xc2, 0xbd, 0xae, 0x4b, 0x05, 0x3d, 0x24, 0x03, 0x40, 0xbe,
    0x4f, 0x25, 0x05, 0xbd, 0xd6, 0x9a, 0x4a, 0x3e, 0xa9, 0xd7, 0x02, 0xbc,
    0xb8, 0x95, 0xbd, 0xbe, 0x64, 0x6f, 0xee, 0x3d, 0xfc, 0x42, 0xaa, 0xbe,
    0xef, 0x56, 0x5c, 0xbd, 0xaa, 0x90, 0xcc, 0x3d, 0x2f, 0x1a, 0x54, 0x3d,
    0x09, 0xd7, 0xb8, 0x3d, 0x85, 0xd0, 0x7c, 0x3e, 0x7f, 0x3e, 0xbc, 0x3e,
    0xa0, 0xe0, 0x7d, 0x3d, 0xae, 0x0d, 0x7b, 0xbe, 0x48, 0x37, 0xf0, 0x3d,
    0x13, 0x01, 0x60, 0xbd, 0x95, 0xb4, 0x11, 0xbd, 0xe9, 0xa0, 0x3b, 0x3e,
    0x0f, 0x07, 0x37, 0x3d, 0xd1, 0x8c, 0x40, 0xbe, 0xb0, 0x9b, 0x26, 0x3e,
    0xe9, 0x8d, 0xb0, 0xbe, 0x4b, 0xa1, 0x4e, 0x3d, 0x3e, 0xfd, 0x5c, 0x3e,
    0x26, 0x6f, 0x97, 0x3d, 0x81, 0xbc, 0xf4, 0xbc, 0x98, 0x42, 0xcd, 0x3d,
    0x33, 0x53, 0x16, 0x3e, 0xe7, 0xf3, 0x06, 0x3d, 0x68, 0x1e, 0x7b, 0xbe,
    0xd6, 0xa0, 0xc7, 0xbd, 0x1f, 0xa7, 0xbe, 0xbe, 0x0d, 0xa3, 0x9d, 0xbd,
    0x8b, 0x7e, 0x06, 0xbe, 0xf0, 0x26, 0xcf, 0xbb, 0x68, 0x63, 0x89, 0xbe,
    0x0b, 0x25, 0x8b, 0x3d, 0xa9, 0xce, 0x59, 0xbe, 0x33, 0x94, 0x9b, 0xbd,
    0x71, 0x78, 0xb2, 0x3d, 0x72, 0x02, 0x45, 0x3e, 0x95, 0xda, 0x1c, 0xbc,
    0x2f, 0xf6, 0xb8, 0x3e, 0x46, 0x71, 0x7d, 0xbd, 0x81, 0xc4, 0xe1, 0x3c,
    0x68, 0x1a, 0x8a, 0xbe, 0xb4, 0x59, 0xa5, 0xbc, 0x62, 0x29, 0x6b, 0xbe,
    0x14, 0x9d, 0x82, 0xbd, 0xf3, 0x7c, 0x47, 0x3e, 0xcd, 0x90, 0x05, 0x3e,
    0x70, 0x8a, 0xb0, 0xbd, 0xb7, 0x71, 0xb5, 0x3c, 0x72, 0x9d, 0x99, 0xbd,
    0x3b, 0x2a, 0x5e, 0x3d, 0x02, 0x2e, 0xb8, 0xbc, 0xbf, 0x30, 0x03, 0x3e,
    0x25, 0x7b, 0x2b, 0xbd, 0x93, 0xe4, 0xbe, 0xbd, 0x9f, 0x3c, 0x5f, 0xbe,
    0x6a, 0x99, 0x5a, 0x3c, 0x73, 0x71, 0xa5, 0xbe, 0x74, 0xcf, 0x86, 0xbe,
    0x2a, 0x0c, 0x9b, 0xbe, 0xfb, 0x41, 0x76, 0xbe, 0x58, 0x2a, 0x26, 0x3e,
    0x9a, 0xec, 0x7e, 0xbd, 0x8d, 0x30, 0xca, 0x3d, 0xec, 0x5d, 0x53, 0x3e,
    0x88, 0x8a, 0xc1, 0xbc, 0xe0, 0x4e, 0xaf, 0xbe, 0x23, 0x1c, 0x88, 0xbc,
    0x77, 0xc8, 0x1e, 0x3d, 0xc7, 0x27, 0x88, 0xbe, 0x67, 0xb1, 0x86, 0x3c,
    0x05, 0xfd, 0x21, 0x3e, 0x47, 0x85, 0x0e, 0x3d, 0xda, 0x25, 0xb6, 0xbe,
    0xb0, 0x06, 0xd4, 0xbd, 0x7c, 0xed, 0xc9, 0x3d, 0xf2, 0x9b, 0xb7, 0x3b,
    0x4e, 0x6a, 0xfb, 0x3e, 0x87, 0xd3, 0x0b, 0x3e, 0x7e, 0xad, 0x98, 0xbd,
    0x8d, 0x1c, 0x85, 0x3e, 0x73, 0x58, 0xad, 0x3d, 0x2b, 0x11, 0x9a, 0x3d,
    0x2c, 0xc2, 0x4b, 0x3e, 0x16, 0x64, 0x47, 0x3e, 0xf7, 0x6e, 0xf9, 0xbe,
    0x09, 0xa7, 0x91, 0x3e, 0xc4, 0x38, 0x95, 0x3e, 0xe1, 0xb9, 0x0a, 0x3d,
    0x01, 0xe2, 0xa0, 0xbe, 0xb5, 0x64, 0xc4, 0x3c, 0x1c, 0x49, 0xbf, 0x3d,
    0xba, 0x9c, 0xa8, 0xbd, 0xd6, 0x8a, 0xc6, 0x3d, 0xf4, 0xce, 0xd3, 0xbc,
    0x02, 0xc6, 0x4c, 0x3d, 0x4c, 0xd5, 0x13, 0x3e, 0xa6, 0x2c, 0xdf, 0x3c,
    0x85, 0x4f, 0xe2, 0xbd, 0x6c, 0x83, 0x7b, 0x3e, 0x88, 0xb5, 0x3c, 0x3e,
    0xce, 0x19, 0x79, 0x3d, 0x53, 0x90, 0x46, 0x3e, 0x36, 0x64, 0x2a, 0x3e,
    0x84, 0x34, 0x70, 0x3d, 0x23, 0x55, 0x21, 0xbe, 0xe2, 0x94, 0x5c, 0xbd,
    0x68, 0xcb, 0x76, 0x3d, 0x14, 0x42, 0x0a, 0x3d, 0x16, 0x51, 0x51, 0xbd,
    0x17, 0x2b, 0x07, 0xbc, 0xd3, 0x9d, 0x8e, 0x3d, 0xc2, 0x02, 0x07, 0x3e,
    0x98, 0x3f, 0xc2, 0x3c, 0x7c, 0x19, 0xd1, 0x3d, 0x54, 0x0a, 0xb1, 0x3e,
    0x16, 0xe7, 0xbc, 0x3d, 0x39, 0x67, 0x82, 0xbd, 0x7d, 0xdf, 0x80, 0x3e,
    0xd9, 0xe7, 0xbc, 0x3d, 0x3d, 0x68, 0x5d, 0x3d, 0xf7, 0x86, 0x75, 0xbe,
    0x32, 0x03, 0x9e, 0xbe, 0x65, 0xdd, 0x37, 0xbd, 0xe0, 0x1c, 0xab, 0x3d,
    0x1d, 0x83, 0x97, 0x3e, 0x7d, 0xd9, 0x90, 0x3c, 0xee, 0x9d, 0xa2, 0xbd,
    0xbf, 0x3a, 0x8a, 0x3e, 0x63, 0x74, 0xcd, 0x3c, 0x0d, 0x64, 0x64, 0x3e,
    0x13, 0xfb, 0x7c, 0x3d, 0x06, 0xcb, 0xf9, 0x3d, 0xb3, 0x79, 0xb0, 0xbd,
    0xa9, 0x1b, 0x70, 0x3e, 0x96, 0x88, 0xfb, 0x3c, 0x73, 0x19, 0xbb, 0x3d,
    0xe3, 0xac, 0xa9, 0xbe, 0x6a, 0x64, 0x8f, 0xbe, 0x6f, 0x6b, 0x62, 0xbe,
    0x48, 0x4f, 0x0b, 0xbe, 0xe2, 0x34, 0x0e, 0x3d, 0xad, 0x7a, 0x14, 0x3c,
    0x8d, 0x4c, 0xab, 0xbd, 0x36, 0x1a, 0xb3, 0xbd, 0xca, 0xe7, 0x47, 0x3d,
    0xaa, 0x33, 0x27, 0x3e, 0x22, 0x1e, 0x3b, 0x3e, 0x7a, 0x4c, 0x4a, 0x3e,
    0x73, 0x32, 0x95, 0xbe, 0x94, 0x36, 0xa5, 0x3e, 0xa1, 0xbc, 0xd7, 0xbd,
    0x13, 0xf3, 0xa5, 0x3d, 0xcd, 0x91, 0x87, 0xbe, 0xa7, 0xf1, 0x90, 0x3c,
    0x6f, 0x31, 0xb8, 0xbe, 0x6e, 0x86, 0x95, 0xbe, 0x1e, 0x07, 0x0c, 0x3e,
    0x68, 0x46, 0x66, 0x3e, 0x59, 0x4e, 0x05, 0x3d, 0x40, 0xf9, 0xa1, 0x3e,
    0x8e, 0x9d, 0xfe, 0x3c, 0xa0, 0x18, 0xa2, 0xbe, 0x02, 0x27, 0x31, 0x3d,
    0x53, 0xb4, 0xf8, 0x3d, 0x43, 0x71, 0x8e, 0xbe, 0x2f, 0x72, 0x21, 0x3e,
    0xe5, 0x4e, 0xd7, 0xbd, 0xce, 0x4f, 0xc1, 0xbd, 0x6d, 0x2b, 0x70, 0xbd,
    0x54, 0xf8, 0x7f, 0x3d, 0x10, 0x77, 0x73, 0xbe, 0x6c, 0x03, 0x22, 0xbe,
    0x26, 0x16, 0x7a, 0xbc, 0x14, 0xd6, 0x40, 0x3d, 0x5c, 0xcd, 0xb4, 0x3d,
    0x6b, 0x38, 0x2c, 0xbd, 0x96, 0x45, 0x45, 0x3d, 0xa3, 0xf3, 0xde, 0x3d,
    0x19, 0x83, 0xdd, 0xbc, 0x43, 0x06, 0x46, 0xbe, 0x1b, 0xe2, 0x39, 0xbe,
    0xd1, 0x5f, 0x9d, 0x3e, 0x50, 0xd7, 0x27, 0xbe, 0x4c, 0x59, 0x8e, 0xbd,
    0x91, 0x76, 0xb8, 0xba, 0x4b, 0x59, 0xbf, 0xbc, 0x24, 0xc0, 0x56, 0xbe,
    0xee, 0x37, 0x79, 0xbe, 0xa8, 0x52, 0x77, 0x3e, 0xd5, 0x78, 0xed, 0xbc,
    0x79, 0x5f, 0x99, 0x3d, 0x8a, 0xd7, 0xa4, 0x3d, 0x0a, 0x44, 0x89, 0x3b,
    0x46, 0xf9, 0xe2, 0x3e, 0x11, 0x47, 0x90, 0x3d, 0x33, 0x0a, 0x6d, 0xbd,
    0x9c, 0x0d, 0xd8, 0xbd, 0x5f, 0xb0, 0xde, 0x3e, 0x3d, 0x16, 0x25, 0xbe,
    0xa3, 0x95, 0x20, 0xbe, 0x41, 0x1d, 0xca, 0xbd, 0x2c, 0x4e, 0x54, 0x3d,
    0xb7, 0x88, 0x64, 0xbd, 0x01, 0x76, 0x87, 0xbd, 0x4b, 0x2c, 0x04, 0x3e,
    0x95, 0xc3, 0xa5, 0x3c, 0xb0, 0xf6, 0x33, 0x3d, 0x13, 0x4f, 0x6b, 0x3d,
    0x48, 0xc3, 0x0c, 0xbb, 0x4a, 0xf4, 0x43, 0x3f, 0xaa, 0x78, 0xa0, 0x3d,
    0x74, 0x23, 0x22, 0xbe, 0x2b, 0xa4, 0xd9, 0x3c, 0xd3, 0x10, 0x03, 0x3f,
    0x93, 0x13, 0x5c, 0x3d, 0xd8, 0x99, 0x3c, 0xbd, 0x00, 0x28, 0x64, 0xbd,
    0x12, 0xe8, 0x55, 0x3c, 0x8d, 0xc7, 0xf1, 0x3b, 0xb6, 0x33, 0x19, 0x3d,
    0x17, 0xe8, 0x61, 0xbd, 0xdc, 0xeb, 0x0f, 0xbd, 0x3f, 0x5e, 0x31, 0x3d,
    0x1d, 0xbf, 0xe8, 0x3d, 0xb8, 0x9f, 0x61, 0xbc, 0xd0, 0x75, 0x34, 0x3f,
    0x35, 0x03, 0x23, 0x3d, 0xa7, 0x1f, 0x92, 0xbd, 0xd3, 0x63, 0x0b, 0x3d,
    0x32, 0xfb, 0xf5, 0x3e, 0x19, 0xd1, 0x19, 0xbe, 0x63, 0x8a, 0x6a, 0xbd,
    0x73, 0xe2, 0x53, 0xb9, 0xe0, 0x83, 0x82, 0x3a, 0x1b, 0x9e, 0x98, 0xbe,
    0x5e, 0xef, 0x0e, 0xbe, 0xa9, 0x58, 0xf2, 0xbc, 0x3b, 0xf4, 0x80, 0xbd,
    0xc9, 0xe1, 0x54, 0x3d, 0xe7, 0x7e, 0x6c, 0x3d, 0xfe, 0x3c, 0x1d, 0x3d,
    0x82, 0x2d, 0xa8, 0x3e, 0xa9, 0x13, 0x05, 0xbd, 0x9a, 0xf5, 0xa3, 0x3d,
    0x00, 0x62, 0x6c, 0xbd, 0x5d, 0x2d, 0x7b, 0x3e, 0x24, 0xa2, 0x36, 0xbe,
    0x07, 0xec, 0xb4, 0xbd, 0x04, 0xfd, 0x0f, 0xbd, 0x5b, 0x9e, 0x8a, 0xbc,
    0xb9, 0xe3, 0x9a, 0xbe, 0x69, 0xf8, 0xc4, 0xbd, 0xc9, 0x3d, 0xb6, 0x3d,
    0xeb, 0xb1, 0x0e, 0xbd, 0x0b, 0xc9, 0xe6, 0x3b, 0x81, 0xd4, 0x94, 0xbd,
    0x20, 0x78, 0x90, 0x3c, 0x1a, 0xb4, 0x95, 0x3d, 0xdd, 0x7d, 0xd4, 0xbd,
    0x13, 0x61, 0xa3, 0x3e, 0x38, 0x54, 0xde, 0xbc, 0xf0, 0x13, 0x58, 0x3e,
    0x2f, 0x65, 0xd6, 0xbd, 0xab, 0x5b, 0x80, 0x3d, 0x97, 0x70, 0xe9, 0xbc,
    0x4d, 0x99, 0x1a, 0x3d, 0xbc, 0x8c, 0xbd, 0xbd, 0x59, 0xd4, 0x9c, 0xbd,
    0x7f, 0x0f, 0x94, 0xbc, 0x4c, 0x9c, 0x31, 0x3d, 0xb1, 0x7b, 0xe9, 0xba,
    0x4e, 0x26, 0x13, 0xbc, 0x36, 0xa9, 0x27, 0x3d, 0xbc, 0x1f, 0x8e, 0x3d,
    0xde, 0x18, 0xa7, 0xbd, 0xb4, 0xa4, 0x05, 0xbd, 0x1c, 0x19, 0xd4, 0xbc,
    0xa8, 0x85, 0xe4, 0xbc, 0x40, 0x11, 0x99, 0xbd, 0xa2, 0x0b, 0x81, 0xbe,
    0x6c, 0xb1, 0x34, 0xbd, 0xe6, 0xc6, 0xcb, 0x3d, 0x55, 0xbb, 0x4b, 0xbe,
    0xff, 0xe0, 0x2b, 0xbe, 0x72, 0x21, 0xc9, 0xbe, 0xce, 0x73, 0x8b, 0xbd,
    0x75, 0x33, 0x11, 0xbc, 0x45, 0xd9, 0xd4, 0x3c, 0x65, 0x0d, 0x90, 0x3d,
    0x0a, 0x7b, 0xc5, 0xbd, 0xca, 0xb2, 0x8d, 0xbe, 0x75, 0xec, 0x2b, 0x3e,
    0xb4, 0xba, 0x95, 0xbe, 0xa2, 0x45, 0x85, 0xbe, 0x62, 0x8c, 0x59, 0x3d,
    0x9a, 0x64, 0x3c, 0xbe, 0xd2, 0xdd, 0x91, 0x3d, 0xf8, 0x1a, 0x29, 0xbe,
    0xe7, 0xe2, 0xd2, 0x3c, 0x9a, 0x3b, 0xa2, 0xbe, 0xeb, 0x25, 0x74, 0xbe,
    0x19, 0xe0, 0x8c, 0xbe, 0x28, 0x7a, 0xb0, 0x3e, 0xa3, 0x58, 0x8d, 0xbc,
    0xb2, 0xa5, 0xed, 0x3d, 0x38, 0x7e, 0xf5, 0xbc, 0xa7, 0x69, 0x35, 0xbe,
    0x50, 0xb7, 0xb5, 0x3d, 0x09, 0x80, 0x63, 0xbe, 0xdb, 0x4e, 0x67, 0xbe,
    0x59, 0x97, 0x23, 0xbd, 0x58, 0x96, 0xc3, 0xbe, 0x12, 0x4b, 0x7b, 0x3c,
    0x47, 0x19, 0x9f, 0x39, 0x9a, 0xe7, 0x86, 0x3d, 0xa3, 0xcf, 0x78, 0xbe,
    0x3b, 0x3f, 0x26, 0xbe, 0x8d, 0xfc, 0x10, 0xbd, 0xe1, 0x13, 0x2a, 0x3e,
    0x4e, 0x3d, 0x6c, 0xbe, 0xcf, 0x15, 0x87, 0xbc, 0x9c, 0x9b, 0x8c, 0xbd,
    0xdf, 0xb9, 0xc8, 0x3d, 0xda, 0x2d, 0x85, 0xbd, 0x0c, 0x71, 0xf0, 0xbc,
    0x61, 0xe0, 0x66, 0xbe, 0xdc, 0xb4, 0x4b, 0xbd, 0xbd, 0xe6, 0xbd, 0xbe,
    0x9f, 0x95, 0xd9, 0xbc, 0xaf, 0x12, 0x16, 0xbd, 0x8a, 0x31, 0x3d, 0xbc,
    0x9d, 0xd9, 0xa5, 0x3b, 0x19, 0x10, 0x09, 0x3c, 0xaa, 0x86, 0x97, 0x3d,
    0x9c, 0x6d, 0x8a, 0x3e, 0xe9, 0xac, 0x16, 0x3d, 0x49, 0x36, 0x69, 0xbd,
    0x82, 0x84, 0xd0, 0xbd, 0xdd, 0x9c, 0x8e, 0x3e, 0x40, 0x00, 0xfa, 0x3d,
    0xb0, 0x2a, 0x46, 0x3d, 0x8c, 0xd3, 0x17, 0xbe, 0xf3, 0x24, 0x73, 0xbe,
    0xfb, 0x65, 0x7f, 0xbe, 0x33, 0x72, 0x71, 0x3c, 0xe8, 0x13, 0x18, 0x3e,
    0x24, 0x5b, 0x3e, 0xbe, 0x8d, 0x5c, 0x9c, 0x3d, 0xda, 0x47, 0x47, 0xbe,
    0xfe, 0x27, 0x58, 0x3d, 0xf9, 0xcd, 0x2e, 0x3e, 0xf1, 0x63, 0xc9, 0xbd,
    0x22, 0xdb, 0x8d, 0xbd, 0xd4, 0x5c, 0xcb, 0xbd, 0x39, 0x8c, 0xfe, 0x3d,
    0xee, 0x34, 0x54, 0xbe, 0x24, 0x79, 0xba, 0xbd, 0x3e, 0xaf, 0xc3, 0xbd,
    0x4e, 0x64, 0xa6, 0xbd, 0xe2, 0x9e, 0x53, 0xbe, 0xd1, 0x19, 0xba, 0x3b,
    0x69, 0x2d, 0x8e, 0x3d, 0x76, 0x77, 0x00, 0xbe, 0x9c, 0xc8, 0xa1, 0xbd,
    0x44, 0x4a, 0x1d, 0xbe, 0x42, 0x88, 0xab, 0x3d, 0x81, 0xab, 0x66, 0x3e,
    0x48, 0xee, 0x82, 0xbc, 0x49, 0x50, 0x98, 0x3c, 0x6e, 0x7f, 0xbd, 0x3d,
    0x2b, 0x32, 0x03, 0x3e, 0xc0, 0x3d, 0x72, 0xbe, 0xd2, 0x27, 0x1f, 0xbe,
    0xc4, 0x34, 0xc2, 0xbe, 0xea, 0x56, 0x07, 0xbe, 0xdf, 0xd2, 0x82, 0xbd,
    0xfa, 0xfc, 0x97, 0x3d, 0x55, 0xe7, 0x8c, 0x3d, 0xa9, 0x89, 0xa2, 0xbc,
    0xe2, 0x85, 0xb3, 0x3c, 0xef, 0x6c, 0xbf, 0xbc, 0x2f, 0xa3, 0xdb, 0x3d,
    0xc4, 0x3f, 0x34, 0x3e, 0x3f, 0xa7, 0x5f, 0xbe, 0x37, 0xe5, 0x74, 0xbd,
    0x4b, 0xbe, 0x7c, 0x3d, 0xa6, 0x02, 0x0d, 0xbe, 0x8c, 0xd4, 0x6d, 0xbe,
    0xe3, 0x59, 0x00, 0x3d, 0x61, 0xc0, 0xa7, 0xbd, 0x10, 0xd5, 0x94, 0x3e,
    0x77, 0xe0, 0x8a, 0x3d, 0xe6, 0x12, 0x7e, 0xbd, 0x95, 0x34, 0x64, 0xbe,
    0x19, 0x9f, 0x4b, 0xbd, 0x20, 0x0a, 0xcb, 0x3d, 0x6b, 0x97, 0x08, 0x3e,
    0x61, 0x79, 0x0e, 0xbf, 0x4e, 0x11, 0x32, 0xbc, 0x71, 0x8c, 0x65, 0x3e,
    0x35, 0x66, 0x9a, 0xbc, 0x04, 0x0f, 0xfa, 0x3d, 0x89, 0xd3, 0x75, 0x3e,
    0x92, 0xe8, 0x5d, 0x3c, 0xe5, 0xef, 0x15, 0xbe, 0x59, 0xdb, 0x9d, 0x3e,
    0x0f, 0xdb, 0x03, 0x3e, 0xed, 0x11, 0xa5, 0x3d, 0xdd, 0x28, 0x9a, 0xbc,
    0x70, 0x13, 0x1f, 0xbe, 0x3c, 0x90, 0x67, 0x3d, 0x21, 0x6d, 0x3e, 0xbd,
    0x20, 0x9c, 0xbe, 0x3e, 0x76, 0x4b, 0xc9, 0xbe, 0x69, 0x85, 0x5a, 0xbd,
    0x10, 0x98, 0x50, 0x3e, 0x67, 0xe1, 0x0f, 0x3c, 0x18, 0x72, 0x8f, 0xbb,
    0xb9, 0x98, 0xbb, 0x3d, 0xe1, 0x75, 0xff, 0x3d, 0xe7, 0x14, 0xb8, 0xbb,
    0x9c, 0x85, 0x15, 0x3d, 0x60, 0x30, 0xbb, 0x3d, 0x3f, 0x15, 0xb6, 0x3c,
    0xa0, 0xd8, 0x4c, 0xbc, 0xfb, 0x8f, 0x8c, 0xbd, 0x34, 0x58, 0x99, 0xbe,
    0x4e, 0xed, 0xb3, 0xbe, 0xb3, 0x27, 0x58, 0x3e, 0xd5, 0x0d, 0x4e, 0xbe,
    0xea, 0x8b, 0x13, 0xbd, 0x6a, 0xba, 0xda, 0x3d, 0x80, 0x97, 0x44, 0x3b,
    0x8f, 0x06, 0x98, 0xbd, 0x26, 0x13, 0x13, 0xbd, 0x86, 0x59, 0x7f, 0x3e,
    0x76, 0x86, 0x64, 0x3c, 0xb3, 0x97, 0x51, 0x3d, 0x8a, 0x04, 0xda, 0x3b,
    0x88, 0xb1, 0x12, 0xbd, 0x29, 0xb1, 0x91, 0xbd, 0x1a, 0x0f, 0x7c, 0xbd,
    0xbf, 0xaf, 0xc1, 0xbd, 0x50, 0x67, 0xf5, 0xbd, 0x38, 0x99, 0x6f, 0x3d,
    0xcb, 0xe6, 0xb4, 0xbe, 0xee, 0xbf, 0x96, 0xbd, 0x76, 0xb9, 0x8e, 0x3d,
    0x1b, 0x18, 0x94, 0xbc, 0x9d, 0x2e, 0x84, 0x3c, 0xd8, 0x7b, 0xc8, 0x3d,
    0x29, 0xc9, 0xed, 0x3d, 0x59, 0xe5, 0x70, 0xbd, 0x62, 0xe9, 0xaf, 0x3d,
    0x61, 0xb3, 0xe6, 0x3e, 0x5b, 0x2f, 0x86, 0x3c, 0x31, 0x11, 0x96, 0xbc,
    0x22, 0xb2, 0xbd, 0xbd, 0xd0, 0x62, 0xd8, 0x3c, 0xda, 0x21, 0xaa, 0x3c,
    0x5d, 0x49, 0x86, 0x3e, 0xbf, 0xfe, 0x82, 0xbe, 0xc1, 0x5e, 0xb6, 0xbd,
    0x2f, 0x60, 0x83, 0x3e, 0xfd, 0xc8, 0xd9, 0xbc, 0x93, 0x0f, 0xc1, 0x3d,
    0x41, 0xc0, 0x07, 0x3e, 0xfb, 0x39, 0x04, 0x3e, 0x28, 0x34, 0xd5, 0xbd,
    0xf7, 0x24, 0x3c, 0x3e, 0xb6, 0x1c, 0xb1, 0x3e, 0x99, 0xfe, 0x8e, 0x3d,
    0x3b, 0x4a, 0x7d, 0xbc, 0x5f, 0xdc, 0x0e, 0xbe, 0xe1, 0xdf, 0x90, 0x3b,
    0x36, 0xf1, 0x3d, 0x3d, 0x5d, 0xbd, 0x18, 0x3e, 0xfb, 0xa9, 0x16, 0xbe,
    0x2b, 0x70, 0xe1, 0xbc, 0xaa, 0x95, 0x89, 0x3e, 0x04, 0x38, 0xef, 0xbb,
    0xf4, 0x3a, 0x6c, 0x3e, 0x76, 0xbd, 0x7b, 0x3e, 0xc3, 0x2a, 0x20, 0x3e,
    0xaf, 0x2a, 0x0f, 0xbd, 0xab, 0x05, 0x91, 0x3e, 0x1b, 0x24, 0x27, 0x3e,
    0x38, 0xbc, 0xe9, 0x3d, 0xe0, 0x5d, 0x5f, 0xbb, 0x15, 0xf7, 0x14, 0xbe,
    0x3b, 0xe5, 0xe7, 0xbc, 0x05, 0xfb, 0xb3, 0x3d, 0x82, 0x66, 0x3b, 0x3e,
    0x5e, 0x15, 0x70, 0xbd, 0xb2, 0x65, 0x2f, 0x3d, 0xb6, 0xce, 0x60, 0x3e,
    0x0e, 0x69, 0x29, 0x3c, 0xab, 0xd5, 0x11, 0x3c, 0xa6, 0x3e, 0x81, 0x3e,
    0xd8, 0xc5, 0x98, 0xbd, 0x5e, 0x83, 0x51, 0xbd, 0x2b, 0x02, 0x20, 0x3d,
    0x3f, 0xe6, 0xdb, 0xbe, 0x36, 0xbe, 0x7f, 0x3d, 0xd6, 0xfd, 0xf6, 0xbe,
    0x94, 0x44, 0xb5, 0x3d, 0xcd, 0xea, 0x54, 0xbe, 0xf6, 0x8b, 0x16, 0x3d,
    0x7b, 0x49, 0x47, 0x3e, 0x14, 0x05, 0x44, 0x3d, 0x7b, 0x5b, 0xff, 0x3d,
    0xbf, 0xde, 0xe0, 0xbd, 0xc8, 0x96, 0xae, 0xbe, 0xe9, 0x74, 0x9d, 0xbe,
    0x36, 0x8f, 0x6d, 0x3e, 0xa8, 0x66, 0x4d, 0x3e, 0x61, 0x52, 0x13, 0xbe,
    0x26, 0x4a, 0xbb, 0x3e, 0x92, 0xd8, 0x5a, 0x3e, 0x96, 0x18, 0x7e, 0x3c,
    0x76, 0x06, 0xdb, 0xbe, 0xa0, 0x59, 0xa4, 0x3e, 0xcb, 0x36, 0x2e, 0x3e,
    0x56, 0xd3, 0x2e, 0xbe, 0x7d, 0x5c, 0x41, 0x3e, 0x7f, 0x86, 0x7d, 0x3d,
    0x6d, 0xe0, 0x14, 0xbf, 0xd4, 0xa9, 0xda, 0xbc, 0x92, 0xc0, 0x69, 0xbe,
    0xba, 0xe4, 0x34, 0x3e, 0x49, 0x77, 0xb2, 0x3e, 0x55, 0x3b, 0xe0, 0xbd,
    0xf1, 0xc3, 0x66, 0xbe, 0xb6, 0xb6, 0x80, 0x3e, 0x15, 0x7f, 0x71, 0x3e,
    0xfd, 0xf7, 0x11, 0x3d, 0x4e, 0x1f, 0x21, 0xbf, 0x3a, 0x15, 0x13, 0x3e,
    0x63, 0xbe, 0x18, 0x3e, 0x4c, 0xda, 0xcc, 0xba, 0x24, 0x11, 0xd0, 0x3d,
    0x3d, 0x87, 0x0c, 0x3c, 0x9e, 0x6a, 0x35, 0xbe, 0x65, 0xd1, 0xc0, 0x3d,
    0x26, 0x9b, 0x0f, 0xbd, 0xef, 0xbd, 0xc4, 0xbd, 0xd8, 0xf4, 0x42, 0x3e,
    0xb2, 0xd4, 0xa9, 0xbc, 0x34, 0xde, 0x68, 0x3e, 0x06, 0x31, 0x37, 0x3e,
    0xcc, 0x32, 0x7f, 0x3e, 0xc5, 0x28, 0x84, 0x3d, 0x0b, 0x09, 0x1a, 0xbf,
    0x65, 0xe0, 0x09, 0x3e, 0x60, 0xa4, 0xc3, 0xbb, 0xf8, 0x1b, 0x85, 0x3e,
    0xa4, 0xb2, 0x53, 0x3e, 0x2b, 0x1d, 0xed, 0x3c, 0x5e, 0x82, 0x46, 0xbe,
    0x9c, 0x22, 0x31, 0xbc, 0xc8, 0x71, 0xb3, 0xbd, 0xe1, 0xd5, 0x0c, 0xbe,
    0x7d, 0xd7, 0x80, 0x3e, 0x8d, 0xd4, 0x22, 0x3e, 0x26, 0xf7, 0x6c, 0x3e,
    0xc8, 0xa4, 0xfa, 0x3d, 0xa6, 0x54, 0x00, 0x3f, 0x19, 0xc3, 0x1e, 0x3d,
    0xf4, 0x17, 0xd0, 0xbe, 0x0f, 0xe2, 0xc9, 0x3d, 0x31, 0x0a, 0xcd, 0xbc,
    0x15, 0xb9, 0xe8, 0x3d, 0xb2, 0x5a, 0xa8, 0x3e, 0xf0, 0x4e, 0x95, 0xbc,
    0xb7, 0xab, 0x5e, 0xbe, 0x58, 0x7b, 0xec, 0xbc, 0x3c, 0x24, 0x08, 0xbe,
    0xdf, 0x1c, 0x52, 0xbd, 0x5a, 0x91, 0x34, 0x3e, 0x06, 0x52, 0xd9, 0x3d,
    0xd5, 0xe4, 0xe7, 0x3d, 0x9f, 0x0b, 0x72, 0x3e, 0xe0, 0x05, 0x61, 0x3e,
    0x99, 0x15, 0xa5, 0x3a, 0x3f, 0x7e, 0x7a, 0xbe, 0xf8, 0x65, 0xa6, 0xbd,
    0x95, 0x35, 0xa0, 0xbe, 0x9e, 0x8f, 0x6d, 0xbe, 0x4b, 0x4b, 0x20, 0x3e,
    0xba, 0x66, 0x9e, 0x3c, 0xd8, 0x4e, 0xbb, 0xbe, 0x82, 0xca, 0xb6, 0x3d,
    0x47, 0x5e, 0xe3, 0xbd, 0x34, 0xf7, 0x90, 0xbe, 0x72, 0x1d, 0x69, 0x3e,
    0xfa, 0x48, 0x14, 0x3e, 0x42, 0xf3, 0x13, 0x3c, 0xf1, 0xa0, 0xe4, 0x3d,
    0x96, 0x0a, 0x3d, 0x3d, 0x7e, 0xa4, 0x07, 0x3d, 0xb5, 0x3c, 0xa4, 0xbe,
    0xab, 0x8d, 0xa9, 0xbd, 0x1d, 0x73, 0x6d, 0xbe, 0xe4, 0x37, 0x25, 0xbd,
    0xe6, 0x2d, 0x22, 0x3e, 0xaf, 0x4a, 0x34, 0xbc, 0xb7, 0xae, 0x8c, 0xbe,
    0x7f, 0xe8, 0x89, 0x3e, 0x73, 0x94, 0x9d, 0xbd, 0x6e, 0x64, 0x54, 0xbd,
    0xd1, 0x51, 0x85, 0xbc, 0xb3, 0xa2, 0x3b, 0x3e, 0x6a, 0x49, 0x83, 0xbd,
    0x7c, 0x23, 0x5a, 0xbd, 0x55, 0xc5, 0x04, 0xbe, 0x7b, 0x7f, 0x56, 0xbd,
    0xaa, 0xa4, 0x60, 0xbe, 0x49, 0xcc, 0x2a, 0xbe, 0x54, 0xc4, 0x84, 0x3d,
    0xbe, 0xae, 0xf3, 0xbd, 0x08, 0x3b, 0xfd, 0xbc, 0x71, 0x29, 0x87, 0xbe,
    0x30, 0x94, 0x1a, 0xbe, 0x59, 0x5c, 0xb9, 0xbd, 0x9a, 0xe8, 0x16, 0xbe,
    0x8d, 0xc4, 0x57, 0xbe, 0xb5, 0xfc, 0x45, 0xbd, 0x65, 0xab, 0x00, 0xbd,
    0x54, 0x55, 0xd0, 0x3d, 0x7f, 0x5a, 0x8f, 0xbb, 0x3a, 0xc1, 0x16, 0x3e,
    0xdf, 0xe0, 0x8d, 0xbd, 0x4b, 0x39, 0x98, 0x3b, 0x7b, 0x0b, 0x02, 0x3e,
    0x6e, 0x4d, 0x0f, 0xbe, 0xeb, 0x35, 0xc7, 0xbd, 0xfd, 0x34, 0x88, 0xbe,
    0x21, 0x58, 0xc3, 0xbd, 0x37, 0xfd, 0x12, 0xbe, 0x2e, 0xcd, 0xab, 0x3d,
    0x52, 0xdc, 0xb8, 0xbd, 0xab, 0xac, 0x1e, 0x3e, 0x74, 0x53, 0x3e, 0xbe,
    0x55, 0x50, 0x85, 0x3a, 0xc3, 0x15, 0x0c, 0x3d, 0x81, 0x29, 0x00, 0xbd,
    0x4a, 0xc5, 0x2e, 0x3e, 0xf9, 0x1f, 0x4a, 0xbe, 0x26, 0x25, 0x0f, 0xbe,
    0xdc, 0xef, 0x57, 0x3d, 0x46, 0xaf, 0x81, 0x3c, 0xbf, 0x35, 0x13, 0xbb,
    0xa9, 0xe4, 0xa4, 0xbd, 0xeb, 0xac, 0x06, 0xbe, 0x9e, 0x8d, 0x65, 0x3c,
    0xf3, 0x76, 0x18, 0x3e, 0x2e, 0x07, 0xd8, 0xbd, 0x6b, 0x7f, 0x85, 0xbd,
    0x04, 0xdf, 0xd8, 0xbc, 0x7f, 0x55, 0x96, 0xbd, 0xc2, 0x4a, 0xca, 0x3d,
    0x09, 0x1a, 0x43, 0x3c, 0xc0, 0x55, 0x1d, 0xbe, 0xd3, 0x0b, 0x6b, 0xbd,
    0xff, 0xf7, 0x09, 0xbe, 0x1f, 0xb7, 0xa9, 0x3d, 0xea, 0x4e, 0xc1, 0xbd,
    0x48, 0x3c, 0x06, 0x3e, 0x51, 0xdb, 0x37, 0xbe, 0x23, 0x05, 0xad, 0xbe,
    0x78, 0xee, 0xc1, 0xbd, 0x10, 0x04, 0xc9, 0x3c, 0x56, 0xd5, 0x79, 0xbd,
    0xd4, 0xfe, 0x3f, 0xbe, 0xa0, 0x48, 0x92, 0xbb, 0xa4, 0xea, 0x6c, 0xbd,
    0x3d, 0x25, 0xc6, 0xbb, 0xd5, 0x5c, 0x4c, 0xba, 0x85, 0xda, 0xe9, 0xbd,
    0x5b, 0x8a, 0xed, 0xbd, 0x81, 0x22, 0x23, 0x3c, 0x62, 0xf9, 0xf5, 0xbc,
    0xa5, 0xbf, 0x40, 0x3e, 0xc9, 0x49, 0x2a, 0xbe, 0x97, 0x8e, 0x53, 0xbe,
    0x12, 0x40, 0x26, 0x3d, 0x2f, 0x56, 0x4b, 0xbd, 0xc9, 0x66, 0x97, 0xbc,
    0x7b, 0x19, 0x82, 0xbd, 0xb6, 0xa5, 0xae, 0x3c, 0x05, 0xc1, 0x12, 0xbe,
    0x5a, 0x1c, 0xce, 0x39, 0xba, 0xce, 0xa3, 0xbd, 0xab, 0xe6, 0x1f, 0x3d,
    0x5b, 0x90, 0x8b, 0x3d, 0xf4, 0x27, 0x76, 0x3c, 0x2b, 0x41, 0x83, 0xbe,
    0xb9, 0x18, 0x71, 0xbc, 0x39, 0xbc, 0x26, 0x3d, 0x71, 0x5c, 0x72, 0xbd,
    0x6b, 0xc3, 0x3f, 0xbd, 0x81, 0x4b, 0x9e, 0x3c, 0x95, 0x7a, 0x39, 0xbe,
    0xaf, 0x69, 0x06, 0xbe, 0x47, 0x34, 0x13, 0xbd, 0x30, 0x70, 0x16, 0xbd,
    0x3e, 0x2a, 0x1b, 0xbe, 0x49, 0x17, 0x83, 0xbe, 0xe3, 0x74, 0x59, 0xbd,
    0xfb, 0x8e, 0x24, 0xbe, 0x00, 0xab, 0x27, 0x3d, 0x20, 0x90, 0xdb, 0xbd,
    0x5e, 0x06, 0xba, 0xbe, 0x0a, 0x99, 0x0b, 0xbd, 0x68, 0xc9, 0x14, 0xbe,
    0xb9, 0x5f, 0x4b, 0xbe, 0xc7, 0xa4, 0xf0, 0xbd, 0x6c, 0xf1, 0x91, 0xbd,
    0xba, 0x44, 0x03, 0xbe, 0x05, 0x81, 0xc2, 0x3d, 0xc0, 0x21, 0x32, 0xbd,
    0xd3, 0x3e, 0x98, 0xbe, 0xa6, 0x30, 0x9d, 0x3c, 0x31, 0x47, 0xde, 0xbd,
    0x6f, 0x8e, 0x75, 0x3d, 0x33, 0x43, 0xda, 0xbd, 0xae, 0xaf, 0x8f, 0x3e,
    0x5f, 0x3c, 0xdf, 0x3c, 0xba, 0xfe, 0xe1, 0x3b, 0xc3, 0x20, 0x84, 0xbe,
    0x7f, 0x34, 0x91, 0x3d, 0x7d, 0x87, 0xcb, 0x3d, 0x29, 0x4f, 0x10, 0xbe,
    0x96, 0x84, 0x27, 0xbf, 0xb7, 0x57, 0x0a, 0x3e, 0x03, 0xbd, 0x55, 0x3d,
    0xf1, 0xa2, 0x7c, 0xbc, 0x78, 0xc4, 0x8f, 0x3e, 0x2c, 0xb7, 0xe0, 0x3e,
    0xb3, 0xfa, 0x3f, 0x3e, 0x51, 0x65, 0x02, 0xbe, 0x89, 0x19, 0x8c, 0x3e,
    0x9a, 0xce, 0x84, 0xbe, 0x3c, 0x2e, 0xa4, 0xbb, 0x61, 0x44, 0xf6, 0xbc,
    0xc5, 0x15, 0x75, 0xbd, 0x15, 0x1d, 0x0c, 0xbd, 0x02, 0x89, 0x13, 0xbf,
    0xb9, 0x63, 0x81, 0xbe, 0x5a, 0xef, 0x85, 0xbe, 0x18, 0x1d, 0xc5, 0x3b,
    0xf6, 0x2e, 0xaf, 0xbc, 0x8c, 0xb8, 0x6a, 0xbe, 0xba, 0x4b, 0x6f, 0xbe,
    0x9b, 0xaf, 0x8b, 0x3e, 0xa5, 0x34, 0x5f, 0x3e, 0x56, 0xff, 0xd3, 0x3d,
    0xa2, 0x93, 0xd1, 0x3c, 0xe7, 0x0d, 0xdd, 0xbd, 0x0c, 0x8c, 0x4f, 0xbd,
    0x36, 0xbb, 0xa0, 0xbd, 0x27, 0x10, 0x8b, 0xbe, 0x31, 0x7a, 0x4d, 0xbf,
    0x55, 0x0c, 0x37, 0xbf, 0x50, 0xfc, 0x88, 0xbe, 0x82, 0x8b, 0x85, 0xbe,
    0xa5, 0xa5, 0xfb, 0xbe, 0xbc, 0xaa, 0x5b, 0x3e, 0xc6, 0xc9, 0x71, 0x3d,
    0xe5, 0xb1, 0x3f, 0xbe, 0x27, 0x32, 0x25, 0x3d, 0x3a, 0xda, 0xf2, 0x3d,
    0x63, 0x5f, 0xf9, 0x3d, 0x8b, 0x3b, 0xf2, 0xbd, 0x28, 0x70, 0xbe, 0xbe,
    0x23, 0x30, 0x7c, 0xbd, 0x7f, 0xf5, 0x37, 0xbf, 0x10, 0x99, 0xf8, 0xbe,
    0x78, 0x06, 0x02, 0xbf, 0x90, 0x05, 0x37, 0xbf, 0x6c, 0x70, 0x7c, 0xbe,
    0xf7, 0x9f, 0xde, 0xbb, 0xa1, 0x4d, 0x0a, 0xbf, 0xa3, 0x4b, 0x53, 0xbd,
    0x62, 0x1c, 0x92, 0xbd, 0xda, 0xfa, 0xd3, 0xbe, 0x32, 0xf5, 0x39, 0x3d,
    0x1f, 0x32, 0x48, 0x3d, 0x6c, 0x56, 0x63, 0xbe, 0xe5, 0x65, 0x60, 0xbe,
    0x9b, 0x36, 0xe9, 0x3e, 0xc0, 0x15, 0xb0, 0xbc, 0xd6, 0xc4, 0xa3, 0xbd,
    0xdf, 0x86, 0xa6, 0xbd, 0x40, 0x85, 0xc6, 0xbc, 0x6d, 0x8c, 0xf3, 0x3d,
    0x38, 0x35, 0xf5, 0xbd, 0xcf, 0x1b, 0x8c, 0xbd, 0x09, 0x82, 0xa5, 0xbe,
    0x61, 0x46, 0x79, 0x3e, 0x66, 0x84, 0x08, 0xbe, 0x04, 0xec, 0x07, 0x3e,
    0x51, 0xf8, 0x2f, 0xbd, 0xde, 0xf3, 0x05, 0x3d, 0x85, 0x23, 0x1b, 0xbf,
    0x54, 0x23, 0xce, 0x3e, 0xe6, 0x23, 0x2d, 0x3f, 0x65, 0xbb, 0x94, 0x3b,
    0x57, 0x4a, 0x1d, 0xbd, 0xad, 0x3b, 0x74, 0xbe, 0xff, 0x40, 0xf1, 0xbc,
    0x3d, 0x9b, 0x34, 0x3e, 0x41, 0x5a, 0x75, 0x3d, 0x82, 0xd4, 0xd1, 0x3d,
    0x98, 0xf6, 0x09, 0x3e, 0x67, 0x11, 0x44, 0x3e, 0x86, 0x22, 0x68, 0xbd,
    0x41, 0x08, 0x9e, 0x3e, 0x02, 0xaa, 0xd8, 0x3e, 0xee, 0x55, 0x5e, 0xbd,
    0x4c, 0xff, 0xe1, 0xbe, 0x5a, 0xe2, 0x87, 0x3e, 0xc8, 0x21, 0x44, 0x3e,
    0x93, 0x15, 0x19, 0x3d, 0x30, 0xde, 0xb9, 0x3c, 0x78, 0x53, 0xb0, 0xbc,
    0x3e, 0xa0, 0x1a, 0x3e, 0xde, 0x91, 0xdd, 0x3d, 0xc0, 0x1d, 0x10, 0xbe,
    0xf0, 0x69, 0x0d, 0xbd, 0x50, 0x96, 0x11, 0xbe, 0x40, 0x67, 0x39, 0x3d,
    0xe6, 0x1a, 0x38, 0xbd, 0x12, 0xa9, 0x00, 0x3e, 0x60, 0x61, 0x1e, 0x3e,
    0x4a, 0xba, 0x57, 0xbe, 0x42, 0x60, 0xf4, 0x3b, 0xfd, 0x39, 0x10, 0x3e,
    0x2f, 0xd4, 0xc3, 0xbe, 0xe3, 0xd4, 0xa1, 0xbd, 0xa7, 0x59, 0xa6, 0x3d,
    0xd0, 0x72, 0x1f, 0xbe, 0xc8, 0x95, 0x57, 0x3e, 0xe7, 0x41, 0x19, 0x3c,
    0x62, 0x9e, 0xa2, 0xbc, 0x08, 0x85, 0xce, 0x3d, 0x76, 0x90, 0xbc, 0xbe,
    0x41, 0x8c, 0x97, 0x3d, 0x38, 0x07, 0xd2, 0xbe, 0x8a, 0xcf, 0xba, 0xbe,
    0x58, 0xac, 0x5e, 0xbe, 0xe6, 0x3d, 0x50, 0x3e, 0x4a, 0x80, 0x9f, 0x3e,
    0x43, 0xc6, 0xc5, 0xbe, 0xe3, 0x1f, 0xa8, 0xbd, 0x3e, 0x95, 0x70, 0xbd,
    0x22, 0xd8, 0x19, 0xbc, 0x00, 0xba, 0x97, 0x3c, 0xaa, 0xd9, 0xf0, 0x3e,
    0x4f, 0x7f, 0x8a, 0x3e, 0x5f, 0xb9, 0x6e, 0xbe, 0x58, 0x0b, 0xee, 0xbd,
    0xe8, 0x14, 0x88, 0xbe, 0xd0, 0x47, 0x88, 0x3f, 0x65, 0xb5, 0x6b, 0xbe,
    0x2b, 0x74, 0x10, 0xbe, 0xb4, 0x37, 0xab, 0xbe, 0x11, 0xf9, 0x03, 0x3e,
    0x1f, 0x70, 0x7d, 0x3e, 0x42, 0x9f, 0x54, 0xbe, 0x79, 0xe2, 0xfb, 0x3c,
    0x6c, 0x0a, 0x99, 0xbc, 0x19, 0x21, 0x06, 0x3e, 0xef, 0xfe, 0x8f, 0xbe,
    0x8a, 0x32, 0x1f, 0x3f, 0xa6, 0xd1, 0xc2, 0x3e, 0x93, 0x38, 0x46, 0xbe,
    0xe4, 0x3b, 0x1d, 0xbe, 0x63, 0x41, 0x25, 0xbe, 0x49, 0x3f, 0x88, 0x3f,
    0xda, 0xa6, 0xdb, 0xbe, 0xba, 0x9d, 0xc7, 0xbd, 0x6b, 0x17, 0x2a, 0x3e,
    0xc5, 0x16, 0xac, 0x3d, 0x78, 0xf5, 0x09, 0xb9, 0x98, 0x71, 0x89, 0xbe,
    0xce, 0x2e, 0xa3, 0xbd, 0xa2, 0x64, 0x12, 0x3d, 0x41, 0xc6, 0x9e, 0x3d,
    0x51, 0xcc, 0x42, 0xbc, 0x6d, 0x04, 0xbb, 0x3e, 0x0d, 0x50, 0x74, 0x3e,
    0xed, 0x4e, 0x4e, 0xbe, 0x2e, 0xd9, 0x5f, 0xbe, 0x87, 0x02, 0x44, 0x3e,
    0x2e, 0x3c, 0x12, 0x3f, 0x72, 0x62, 0x61, 0xbe, 0x4f, 0xb9, 0x04, 0xbf,
    0x22, 0x13, 0x14, 0x3d, 0xa0, 0x92, 0x20, 0x3e, 0x45, 0xe3, 0x79, 0xbc,
    0xc1, 0x34, 0x05, 0xbf, 0x72, 0xb4, 0x96, 0xba, 0x3c, 0x55, 0xb6, 0xbb,
    0x92, 0x76, 0x36, 0x3e, 0xdb, 0x05, 0xe4, 0xbd, 0x7b, 0x0f, 0x8e, 0x3e,
    0xf2, 0x2d, 0x73, 0xbd, 0x46, 0x37, 0x58, 0xbe, 0x97, 0xf1, 0x48, 0xbe,
    0x44, 0x08, 0xa4, 0xbd, 0x34, 0x9d, 0xcd, 0x3d, 0xd4, 0x34, 0x83, 0xbe,
    0x77, 0x47, 0xf5, 0xbe, 0x21, 0xd3, 0x90, 0x3d, 0x83, 0x3b, 0x03, 0x3e,
    0x74, 0x75, 0x9e, 0x3e, 0x65, 0xa5, 0x16, 0xbf, 0xc1, 0x20, 0xe8, 0x3d,
    0x3f, 0xaf, 0x54, 0xbc, 0xf0, 0xbb, 0x04, 0x3d, 0x3f, 0xaa, 0x31, 0x3c,
    0x60, 0x49, 0x54, 0x3d, 0x23, 0x60, 0x0c, 0x3d, 0x79, 0x5d, 0x0e, 0xbe,
    0xed, 0x6b, 0x43, 0xbc, 0xb4, 0x21, 0x20, 0xbe, 0x0e, 0x09, 0xf0, 0x3e,
    0x24, 0x9b, 0xe4, 0xbd, 0x80, 0xde, 0x66, 0xbe, 0xdb, 0x2e, 0xa4, 0x3d,
    0xee, 0x00, 0x87, 0x3d, 0x94, 0x73, 0x3e, 0x3e, 0xc8, 0xe3, 0x73, 0xbe,
    0x44, 0x47, 0x43, 0x3d, 0x00, 0x04, 0x81, 0xbd, 0x00, 0x2c, 0x44, 0x3d,
    0x65, 0x61, 0x5d, 0xbe, 0x46, 0xc2, 0x61, 0x3d, 0xf1, 0x7b, 0xc1, 0x3a,
    0x4e, 0x32, 0x49, 0xbe, 0xa9, 0xcf, 0x8a, 0x3b, 0xb0, 0xae, 0xda, 0xbd,
    0x4f, 0x79, 0x24, 0x3f, 0x52, 0x1a, 0xb1, 0xbd, 0x39, 0xa4, 0xfa, 0x3a,
    0xf8, 0x62, 0x5f, 0xbe, 0xf0, 0x7b, 0x46, 0xbd, 0xb4, 0xb6, 0x15, 0x3d,
    0xdf, 0xd1, 0x8d, 0xbd, 0x62, 0xfd, 0xff, 0xff, 0x10, 0x00, 0x00, 0x00,
    0x07, 0x00, 0x00, 0x00, 0x14, 0x00, 0x00, 0x00, 0x2c, 0x00, 0x00, 0x00,
    0x02, 0x00, 0x00, 0x00, 0x10, 0x00, 0x00, 0x00, 0x70, 0x00, 0x00, 0x00,
    0x17, 0x00, 0x00, 0x00, 0x73, 0x65, 0x71, 0x75, 0x65, 0x6e, 0x74, 0x69,
    0x61, 0x6c, 0x2f, 0x64, 0x65, 0x6e, 0x73, 0x65, 0x2f, 0x4d, 0x61, 0x74,
    0x4d, 0x75, 0x6c, 0x00, 0xcc, 0xfc, 0xff, 0xff, 0xd6, 0xfd, 0xff, 0xff,
    0x04, 0x00, 0x00, 0x00, 0x08, 0x00, 0x00, 0x00, 0xff, 0xff, 0xff, 0xff,
    0x70, 0x00, 0x00, 0x00, 0x00, 0x00, 0x0e, 0x00, 0x18, 0x00, 0x08, 0x00,
    0x07, 0x00, 0x0c, 0x00, 0x10, 0x00, 0x14, 0x00, 0x0e, 0x00, 0x00, 0x00,
    0x00, 0x00, 0x00, 0x02, 0x10, 0x00, 0x00, 0x00, 0x06, 0x00, 0x00, 0x00,
    0x10, 0x00, 0x00, 0x00, 0x2c, 0x00, 0x00, 0x00, 0x01, 0x00, 0x00, 0x00,
    0x02, 0x00, 0x00, 0x00, 0x18, 0x00, 0x00, 0x00, 0x73, 0x65, 0x71, 0x75,
    0x65, 0x6e, 0x74, 0x69, 0x61, 0x6c, 0x2f, 0x66, 0x6c, 0x61, 0x74, 0x74,
    0x65, 0x6e, 0x2f, 0x43, 0x6f, 0x6e, 0x73, 0x74, 0x00, 0x00, 0x00, 0x00,
    0x34, 0xfd, 0xff, 0xff, 0x3e, 0xfe, 0xff, 0xff, 0x04, 0x00, 0x00, 0x00,
    0x10, 0x00, 0x00, 0x00, 0x85, 0x98, 0x67, 0x3e, 0xe9, 0xb7, 0x8a, 0xc0,
    0xc4, 0x40, 0xba, 0x3f, 0xd4, 0x72, 0x12, 0xbf, 0x26, 0xfe, 0xff, 0xff,
    0x10, 0x00, 0x00, 0x00, 0x05, 0x00, 0x00, 0x00, 0x10, 0x00, 0x00, 0x00,
    0x44, 0x00, 0x00, 0x00, 0x01, 0x00, 0x00, 0x00, 0x04, 0x00, 0x00, 0x00,
    0x32, 0x00, 0x00, 0x00, 0x73, 0x65, 0x71, 0x75, 0x65, 0x6e, 0x74, 0x69,
    0x61, 0x6c, 0x2f, 0x64, 0x65, 0x6e, 0x73, 0x65, 0x5f, 0x31, 0x2f, 0x42,
    0x69, 0x61, 0x73, 0x41, 0x64, 0x64, 0x2f, 0x52, 0x65, 0x61, 0x64, 0x56,
    0x61, 0x72, 0x69, 0x61, 0x62, 0x6c, 0x65, 0x4f, 0x70, 0x2f, 0x72, 0x65,
    0x73, 0x6f, 0x75, 0x72, 0x63, 0x65, 0x00, 0x00, 0xa8, 0xfd, 0xff, 0xff,
    0xb2, 0xfe, 0xff, 0xff, 0x04, 0x00, 0x00, 0x00, 0x40, 0x00, 0x00, 0x00,
    0x6e, 0x73, 0x55, 0x3f, 0x8e, 0xc9, 0x14, 0x40, 0x77, 0x52, 0x68, 0xbe,
    0x30, 0xff, 0xf9, 0x3e, 0x59, 0x73, 0x6c, 0x3f, 0x85, 0x81, 0x03, 0xbf,
    0xab, 0x52, 0x39, 0x40, 0xc3, 0xa8, 0x1d, 0x40, 0x9d, 0x77, 0xb8, 0x3f,
    0x2f, 0xa5, 0x88, 0x40, 0x6b, 0xc0, 0x1e, 0xbf, 0x41, 0x88, 0xfd, 0x3e,
    0xab, 0xa1, 0x31, 0x40, 0x79, 0xef, 0x42, 0xbf, 0x43, 0xaf, 0x08, 0xbf,
    0x80, 0x91, 0x29, 0x3f, 0xca, 0xfe, 0xff, 0xff, 0x10, 0x00, 0x00, 0x00,
    0x04, 0x00, 0x00, 0x00, 0x10, 0x00, 0x00, 0x00, 0x44, 0x00, 0x00, 0x00,
    0x01, 0x00, 0x00, 0x00, 0x10, 0x00, 0x00, 0x00, 0x30, 0x00, 0x00, 0x00,
    0x73, 0x65, 0x71, 0x75, 0x65, 0x6e, 0x74, 0x69, 0x61, 0x6c, 0x2f, 0x64,
    0x65, 0x6e, 0x73, 0x65, 0x2f, 0x42, 0x69, 0x61, 0x73, 0x41, 0x64, 0x64,
    0x2f, 0x52, 0x65, 0x61, 0x64, 0x56, 0x61, 0x72, 0x69, 0x61, 0x62, 0x6c,
    0x65, 0x4f, 0x70, 0x2f, 0x72, 0x65, 0x73, 0x6f, 0x75, 0x72, 0x63, 0x65,
    0x00, 0x00, 0x00, 0x00, 0x4c, 0xfe, 0xff, 0xff, 0x56, 0xff, 0xff, 0xff,
    0x04, 0x00, 0x00, 0x00, 0x40, 0x00, 0x00, 0x00, 0x16, 0xe4, 0xb8, 0xbf,
    0x4a, 0x6f, 0x93, 0x3f, 0x23, 0xb9, 0x97, 0x3f, 0x70, 0x45, 0xe3, 0xbe,
    0x24, 0xf9, 0x9e, 0x40, 0xc8, 0xde, 0xbd, 0xbf, 0x41, 0xfe, 0xb5, 0xbb,
    0xac, 0x8f, 0xc9, 0x3e, 0x59, 0xa8, 0x2a, 0xbe, 0x8c, 0x29, 0x7a, 0x3f,
    0xc5, 0x8f, 0xa4, 0xbf, 0x2f, 0xae, 0x82, 0xbe, 0x11, 0xb0, 0xf4, 0xbe,
    0xbe, 0xef, 0x19, 0x40, 0x4a, 0x82, 0x81, 0xbf, 0xc6, 0xe0, 0x6a, 0xbb,
    0x6e, 0xff, 0xff, 0xff, 0x10, 0x00, 0x00, 0x00, 0x03, 0x00, 0x00, 0x00,
    0x10, 0x00, 0x00, 0x00, 0x48, 0x00, 0x00, 0x00, 0x01, 0x00, 0x00, 0x00,
    0x10, 0x00, 0x00, 0x00, 0x33, 0x00, 0x00, 0x00, 0x73, 0x65, 0x71, 0x75,
    0x65, 0x6e, 0x74, 0x69, 0x61, 0x6c, 0x2f, 0x63, 0x6f, 0x6e, 0x76, 0x32,
    0x64, 0x5f, 0x31, 0x2f, 0x42, 0x69, 0x61, 0x73, 0x41, 0x64, 0x64, 0x2f,
    0x52, 0x65, 0x61, 0x64, 0x56, 0x61, 0x72, 0x69, 0x61, 0x62, 0x6c, 0x65,
    0x4f, 0x70, 0x2f, 0x72, 0x65, 0x73, 0x6f, 0x75, 0x72, 0x63, 0x65, 0x00,
    0x04, 0x00, 0x06, 0x00, 0x04, 0x00, 0x00, 0x00, 0x00, 0x00, 0x06, 0x00,
    0x08, 0x00, 0x04, 0x00, 0x06, 0x00, 0x00, 0x00, 0x04, 0x00, 0x00, 0x00,
    0x20, 0x00, 0x00, 0x00, 0xff, 0x9f, 0xf2, 0xbf, 0xb7, 0x3c, 0x97, 0xbc,
    0xbb, 0x9f, 0xb0, 0xbf, 0xd9, 0x1f, 0x37, 0xc0, 0x9a, 0x84, 0xe5, 0x3d,
    0x63, 0x80, 0x18, 0xc0, 0x31, 0xac, 0x4f, 0xbf, 0x74, 0x1f, 0xad, 0xbf,
    0x00, 0x00, 0x0e, 0x00, 0x14, 0x00, 0x04, 0x00, 0x00, 0x00, 0x08, 0x00,
    0x0c, 0x00, 0x10, 0x00, 0x0e, 0x00, 0x00, 0x00, 0x10, 0x00, 0x00, 0x00,
    0x02, 0x00, 0x00, 0x00, 0x10, 0x00, 0x00, 0x00, 0x44, 0x00, 0x00, 0x00,
    0x01, 0x00, 0x00, 0x00, 0x08, 0x00, 0x00, 0x00, 0x31, 0x00, 0x00, 0x00,
    0x73, 0x65, 0x71, 0x75, 0x65, 0x6e, 0x74, 0x69, 0x61, 0x6c, 0x2f, 0x63,
    0x6f, 0x6e, 0x76, 0x32, 0x64, 0x2f, 0x42, 0x69, 0x61, 0x73, 0x41, 0x64,
    0x64, 0x2f, 0x52, 0x65, 0x61, 0x64, 0x56, 0x61, 0x72, 0x69, 0x61, 0x62,
    0x6c, 0x65, 0x4f, 0x70, 0x2f, 0x72, 0x65, 0x73, 0x6f, 0x75, 0x72, 0x63,
    0x65, 0x00, 0x00, 0x00, 0x90, 0xff, 0xff, 0xff, 0x14, 0x00, 0x18, 0x00,
    0x04, 0x00, 0x00, 0x00, 0x08, 0x00, 0x0c, 0x00, 0x10, 0x00, 0x00, 0x00,
    0x00, 0x00, 0x14, 0x00, 0x14, 0x00, 0x00, 0x00, 0x14, 0x00, 0x00, 0x00,
    0x01, 0x00, 0x00, 0x00, 0x20, 0x00, 0x00, 0x00, 0x44, 0x00, 0x00, 0x00,
    0x2c, 0x00, 0x00, 0x00, 0x04, 0x00, 0x00, 0x00, 0x01, 0x00, 0x00, 0x00,
    0x40, 0x00, 0x00, 0x00, 0x03, 0x00, 0x00, 0x00, 0x01, 0x00, 0x00, 0x00,
    0x0c, 0x00, 0x00, 0x00, 0x63, 0x6f, 0x6e, 0x76, 0x32, 0x64, 0x5f, 0x69,
    0x6e, 0x70, 0x75, 0x74, 0x00, 0x00, 0x00, 0x00, 0x04, 0x00, 0x00, 0x00,
    0xff, 0xff, 0xff, 0xff, 0x40, 0x00, 0x00, 0x00, 0x03, 0x00, 0x00, 0x00,
    0x01, 0x00, 0x00, 0x00, 0xfc, 0xff, 0xff, 0xff, 0x04, 0x00, 0x04, 0x00,
    0x04, 0x00, 0x00, 0x00};

unsigned int model_tflite_len = 13120; // Fill the int in `src/model.cc` here